[PAD]
[UNK]
[CLS]
[SEP]
[MASK]
!
"
#
$
%
&
'
(
)
*
+
,
-
.
/
0
1
2
3
4
5
6
7
8
9
:
;
<
=
>
?
@
[
\
]
^
_
`
a
b
c
d
e
f
g
h
i
j
k
l
m
n
o
p
q
r
s
t
u
v
w
x
y
z
{
|
}
~
¡
¢
£
¤
¥
¦
§
¨
©
ª
«
¬
®
¯
°
±
²
³
´
µ
¶
·
¸
¹
º
»
¼
½
¾
¿
×
ß
æ
ð
÷
ø
þ
đ
ħ
ı
ĸ
ŀ
ł
ŋ
œ
ſ
ƒ
ƙ
ƛ
ƞ
ƥ
ƭ
ƴ
ƶ
ǀ
ǁ
ǂ
ȷ
ɑ
ɖ
ə
ɛ
ɡ
ɣ
ɤ
ɩ
ɪ
ɲ
ɳ
ɵ
ɷ
ɸ
ɿ
ʃ
ʈ
ʊ
ʋ
ʌ
ʎ
ʘ
ʟ
ʹ
ʺ
ʻ
ʼ
˂
˃
˄
ˆ
ˇ
ˈ
ˉ
ˊ
ː
ˑ
˗
˘
˙
˚
˜
˝
˟
˭
˿
ͽ
΄
΢
α
β
γ
δ
ε
ζ
η
θ
ι
κ
λ
μ
ν
ξ
ο
π
ρ
ς
σ
τ
υ
φ
χ
ψ
ω
ϐ
ϑ
ϒ
ϕ
ϖ
ϛ
ϝ
ϡ
ϭ
ϰ
ϱ
ϵ
϶
а
б
в
г
д
е
ж
з
и
к
л
м
н
о
п
р
с
т
у
ф
х
ц
ч
ш
щ
ъ
ы
ь
э
ю
я
є
і
ј
ћ
ѱ
ѳ
ѵ
҂
ҏ
ґ
һ
ә
ө
ԑ
׀
׳
״
،
ا
ب
ة
ت
ج
ح
خ
د
ر
ز
س
ش
ض
ط
ع
غ
ـ
ف
ق
ك
ل
م
ن
ه
و
ي
٭
ߙ
ा
ᄋ
ᄑ
ᄒ
ᅡ
ᅧ
ᅬ
ᅯ
ᅳ
ᆨ
ᆪ
ᆫ
ᆬ
ᆽ
ᆿ
ᴅ
ᴨ
ᴼ
ᵒ
‐
‑
‒
–
—
―
‖
‗
‘
’
‚
‛
“
”
„
‟
†
‡
•
‥
…
‧
‰
‱
′
″
‴
‵
‹
›
‾
⁁
⁄
⁎
⁗
⁰
⁺
⁻
ⁿ
₀
₁
₂
₃
₄
₇
ₒ
₤
₦
€
₵
₸
₹
⃝
ℂ
℃
ℇ
ℋ
ℍ
ℏ
ℐ
ℑ
ℒ
ℓ
ℕ
№
℘
ℙ
ℚ
ℛ
ℜ
ℝ
™
ℤ
℧
ℬ
ℭ
ℰ
ℱ
ℳ
ℵ
ℶ
ℷ
ℸ
ⅅ
ⅆ
ⅇ
ⅈ
⅓
⅔
⅙
⅛
⅜
ⅰ
ⅱ
ⅲ
ⅳ
ⅴ
ⅵ
ⅶ
ⅹ
←
↑
→
↓
↔
↕
↖
↗
↘
↙
↝
↠
↣
↦
↩
↪
↬
↭
↶
↷
↺
↻
↼
↽
↾
↿
⇀
⇁
⇂
⇄
⇅
⇆
⇈
⇉
⇊
⇋
⇌
⇐
⇑
⇒
⇓
⇔
⇕
⇛
⇝
⇢
⇨
⇴
⇵
∀
∁
∂
∃
∅
∆
∇
∈
∊
∋
∍
∎
∏
∐
∑
−
∓
∔
∕
∖
∗
∘
∙
√
∝
∞
∟
∠
∡
∢
∣
∥
∧
∨
∩
∪
∫
∬
∭
∮
∯
∰
∳
∴
∵
∶
∷
∸
∼
∽
≀
≂
≃
≅
≈
≊
≌
≍
≏
≐
≑
≒
≔
≕
≗
≙
≜
≝
≟
≡
≤
≥
≦
≧
≪
≫
≬
≲
≳
≶
≷
≺
≻
≼
≽
≾
≿
⊂
⊃
⊆
⊇
⊊
⊋
⊎
⊏
⊐
⊑
⊒
⊓
⊔
⊕
⊖
⊗
⊘
⊙
⊚
⊛
⊝
⊞
⊟
⊠
⊡
⊢
⊣
⊤
⊥
⊧
⊨
⊩
⊲
⊳
⊴
⊵
⊸
⊺
⊻
⊿
⋀
⋁
⋂
⋃
⋄
⋅
⋆
⋇
⋈
⋉
⋊
⋌
⋍
⋎
⋏
⋐
⋒
⋓
⋔
⋖
⋗
⋘
⋙
⋚
⋛
⋥
⋮
⋯
⋰
⋱
⌀
⌂
⌈
⌉
⌊
⌋
⌜
⌝
⌞
⌟
⌢
⌣
⌷
⍺
⎓
⎔
⎕
⎯
⎴
⏞
⏟
␣
①
②
③
④
⑤
⑥
⑦
⑧
⑨
⑩
⑪
⑫
ⓐ
ⓑ
ⓒ
ⓓ
ⓔ
ⓕ
ⓡ
ⓢ
─
│
┆
├
┴
═
║
╪
╲
▒
▓
■
□
▪
▫
▭
▯
▱
▲
△
▴
▵
▶
▷
▸
▹
►
▼
▽
▾
▿
◀
◁
◂
◃
◄
◆
◇
◊
○
●
◦
◯
◻
◼
★
☆
☉
☐
♀
♂
♄
♠
♡
♢
♣
♥
♦
♭
♮
♯
⚬
✓
✕
✝
✠
✣
❒
❶
❷
➀
➁
➂
➃
➄
➊
➋
➌
➔
➝
➢
⟂
⟦
⟧
⟨
⟩
⟪
⟫
⟵
⟶
⟷
⟸
⟹
⟺
⟼
⢢
⤢
⤳
⥀
⥁
⥂
⥄
⦀
⦁
⦵
⦶
⧠
⧢
⧧
⧫
⧵
⧸
⧹
⧺
⨀
⨁
⨂
⨄
⨅
⨆
⨉
⨋
⨍
⨎
⨏
⨖
⨯
⨼
⨿
⩽
⩾
⪅
⪆
⪕
⪖
⪝
⪞
⪡
⪢
⪯
⪰
⫅
⫋
⫪
⫫
⫶
⫿
⬓
⬜
⬡
⬢
ⱔ
⿡
⿢
⿤
⿥
⿦
⿫
⿯
⿲
⿳
⿴
⿼
⿿
、
。
〈
〉
《
》
『
』
〔
〕
〚
〛
〞
く
・
㎛
中
大
本
獳
的
草
ꞌ
ﬀ
ﬁ
ﬂ
ﬃ
︵
︶
︷
︸
﹒
％
（
）
＋
，
－
．
：
；
＜
＝
＞
｜
～
･
￥
𝐀
𝐁
𝐂
𝐃
𝐄
𝐅
𝐆
𝐇
𝐈
𝐉
𝐊
𝐋
𝐌
𝐎
𝐏
𝐐
𝐑
𝐒
𝐓
𝐔
𝐕
𝐖
𝐗
𝐘
𝐙
𝐚
𝐛
𝐜
𝐝
𝐞
𝐟
𝐠
𝐡
𝐢
𝐣
𝐤
𝐦
𝐧
𝐩
𝐪
𝐫
𝐬
𝐭
𝐮
𝐯
𝐰
𝐱
𝐲
𝐳
𝑎
𝑐
𝑖
𝑙
𝑛
𝑟
𝑠
𝑡
𝑣
𝑤
𝑨
𝑩
𝑬
𝑭
𝑮
𝑰
𝑱
𝑴
𝑸
𝑹
𝑼
𝑽
𝑿
𝒂
𝒊
𝒌
𝒍
𝒏
𝒑
𝒒
𝒓
𝒔
𝒖
𝒗
𝒙
𝒚
𝒜
𝒞
𝒟
𝒢
𝒥
𝒦
𝒩
𝒪
𝒫
𝒬
𝒮
𝒯
𝒰
𝒲
𝒻
𝓁
𝔻
𝔼
𝕀
𝕃
𝕄
𝕋
𝕍
𝕎
𝚪
𝚺
𝛼
𝜀
𝜃
𝜖
𝜗
𝜶
𝜸
𝜼
𝜽
𝜿
𝝁
𝝂
𝝃
𝝈
𝝉
𝝌
𝝎
𝟎
𝟏
𝟐
##ρ
##u
##h
##−
##ε
##c
##g
##t
##a
##n
##r
##e
##m
##o
##p
##s
##i
##5
##3
##x
##π
##2
##f
##d
##y
##l
##k
##0
##7
##v
##w
##j
##≔
##∫
##∞
##∂
##φ
##ψ
##z
##θ
##⊗
##∈
##γ
##μ
##8
##ω
##∣
##∝
##δ
##∕
##∼
##6
##≡
##1
##⊆
##ξ
##η
##∑
##ζ
##b
##4
##q
##×
##→
##¯
##σ
##⌢
##α
##9
##β
##≤
##ℏ
##∇
##ˆ
##∥
##ν
##˜
##ϕ
##±
##≳
##∗
##λ
##≲
##τ
##°
##⇒
##⩽
##™
##χ
##≥
##≫
##≪
##υ
##∘
##≈
##⊥
##ⅆ
##↔
##∙
##⪢
##˙
##⋯
##⟶
##⁄
##κ
##⇄
##↑
##ϵ
##⋅
##˘
##□
##ℝ
##∬
##⊤
##ϱ
##⋮
##⋱
##ι
##⋙
##∩
##ς
##≃
##ℓ
##¨
##∪
##≷
##⩾
##⊖
##ο
##ℳ
##®
##ϒ
##ı
##⿿
##∀
##∓
##↓
##н
##ф
##м
##г
##≕
##√
##⊕
##ˇ
##★
##⋄
##∏
##ϑ
##µ
##∖
##⊴
##∆
##≅
##∊
##⇔
##∭
##℘
##∨
##⋃
##∶
##½
##¾
##⪡
##←
##⋆
##ћ
##↗
##∧
##⇝
##⊂
##⪯
##÷
##▒
##ɛ
##⇀
##⇌
##ℜ
##▪
##ß
##ϖ
##↦
##ℑ
##⇉
##б
##т
##∷
##⧹
##ƛ
##´
##⑧
##⇐
##∃
##∮
##≐
##²
##л
##ы
##⁻
##∠
##ħ
##đ
##п
##и
##в
##△
##¬
##⊑
##⌣
##⊃
##ø
##⨁
##ϰ
##≜
##∅
##€
##⟹
##ₒ
##⇆
##ь
##о
##е
##ℍ
##к
##⇑
##③
##¦
##▽
##│
##℧
##⊙
##ʼ
##ð
##▿
##х
##˚
##æ
##д
##≽
##ℬ
##⿡
##⊺
##ч
##щ
##●
##ª
##ℂ
##ⅱ
##𝜖
##⊠
##═
##ц
##я
##♯
##©
##º
##ⅇ
##⋂
##ł
##𝐟
##ȷ
##з
##≺
##⋀
##⌝
##↘
##ю
##ш
##ɑ
##р
##с
##а
##℃
##ᅡ
##ᄋ
##ᅳ
##ᆫ
##⊛
##∋
##⏞
##у
##≶
##⋁
##⊊
##𝑎
##∽
##і
##𝜃
##♠
##ж
##⟷
##ˈ
##≻
##⪰
##♢
##⦀
##⊇
##⨂
##─
##ℋ
##≦
##○
##⥄
##¢
##ʺ
##⇋
##∢
##ℛ
##␣
##⟼
##⧸
##⑤
##⊘
##⊎
##ᄑ
##⏟
##𝑮
##𝒚
##𝜀
##⊓
##⊔
##◯
##𝒞
##⊩
##𝐧
##ℱ
##𝐅
##⅓
##£
##↠
##⋉
##ℵ
##≼
##↾
##𝒌
##⟂
##≒
##☆
##œ
##▵
##♂
##①
##♀
##⊲
##ʋ
##𝐞
##𝐢
##𝐣
##⊨
##є
##⪅
##ъ
##⊡
##⊳
##ﬁ
##↙
##⎔
##ᵒ
##⊢
##ˊ
##ө
##ґ
##⿲
##≿
##⪕
##ʻ
##ℇ
##◊
##⫅
##⟵
##𝐦
##ſ
##ƒ
##𝐔
##𝑣
##𝑤
##ɸ
##⟺
##₵
##ℙ
##▹
##𝜗
##≧
##ʹ
##◃
##⁰
##₂
##𝑼
##ℕ
##𝐫
##𝐓
##𝝁
##ن
##ع
##ك
##ا
##س
##ي
##♦
##▾
##ͽ
##⧧
##～
##⧺
##⌟
##↕
##∁
##⨿
##₄
##ⅅ
##◦
##▴
##ℒ
##⇛
##∴
##⿤
##≀
##♮
##⎯
##≊
##⋥
##𝐊
##♭
##ᅯ
##ᆽ
##⇓
##΄
##𝒓
##˗
##𝒏
##𝑨
##↝
##𝐤
##⌜
##▷
##☉
##⊚
##◻
##𝐑
##⪆
##ǂ
##ⅰ
##②
##𝐗
##↪
##►
##ϛ
##≂
##¸
##④
##ℤ
##ɵ
##⨆
##┴
##ǀ
##⋈
##ﬀ
##◇
##⨍
##ϝ
##＋
##↖
##⥂
##∯
##⇂
##𝒬
##■
##▲
##𝐠
##𝐯
##¥
##ℚ
##ⅈ
##⋰
##ː
##ℐ
##≙
##ﬂ
##𝐏
##⥀
##э
##⋍
##𝒫
##˭
##΢
##𝒙
##⋚
##⊞
##ǁ
##♄
##ᆨ
##⿳
##𝟏
##∔
##↿
##ҏ
##⊣
##⫋
##ƶ
##⿢
##◁
##ⅲ
##⫪
##ⓡ
##ѳ
##⬓
##↭
##ℰ
##⊏
##ᅧ
##ᆪ
##𝟎
##𝜸
##✠
##⫫
##₃
##⑨
##◆
##𝐖
##▓
##⊧
##⬡
##⚬
##𝐪
##＜
##𝐁
##𝒥
##ل
##غ
##ر
##ℷ
##≾
##𝑬
##𝒊
##𝝌
##⦵
##☐
##𝑴
##⃝
##𝐱
##∵
##║
##↼
##˃
##⬜
##³
##＝
##♡
##𝐌
##ℸ
##¤
##∡
##⊸
##ə
##✣
##ˑ
##⋛
##𝕀
##⑦
##و
##⋖
##ɣ
##ʃ
##𝐕
##𝐙
##𝐘
##𝟐
##𝐉
##├
##⌀
##╲
##⇊
##⋏
##≍
##⋊
##ᴼ
##⋐
##∍
##⿦
##⿯
##𝐚
##⦶
##ϡ
##✕
##⋇
##𝝈
##˝
##𝐡
##𝚺
##⅛
##⬢
##▼
##ⓢ
##𝝉
##↺
##➌
##≌
##ℶ
##⇁
##⎕
##ƞ
##ᴅ
##ᆬ
##ˉ
##¼
##⨀
##𝝂
##𝐳
##𝐀
##ŋ
##⿫
##ⓔ
##⇵
##➔
##⋗
##ѱ
##≗
##₀
##𝐃
##𝐒
##↶
##ꞌ
##𝐄
##˿
##ⅴ
##⪞
##∳
##ा
##𝐈
##⎴
##⋘
##∐
##≑
##⨖
##＞
##ј
##↩
##ف
##↣
##⋔
##⌞
##ߙ
##▶
##↽
##𝐩
##↻
##ŀ
##⇕
##ѵ
##𝑭
##⪖
##⁺
##ɳ
##⧫
##ⅹ
##≬
##𝒖
##𝒲
##▫
##ʎ
##↷
##ᅬ
##⿥
##⊵
##⊐
##⫿
##𝚪
##𝐂
##⊻
##⇈
##𝒔
##þ
##⧵
##⊟
##ة
##◀
##¹
##ɷ
##⤢
##⨼
##₤
##⫶
##✓
##ʘ
##ᆿ
##⅔
##𝑽
##𝒜
##⦁
##𝐭
##⿼
##⧢
##ɡ
##⨋
##∰
##♣
##ƙ
##𝐇
##𝒩
##⊝
##𝐎
##∸
##ⅵ
##｜
##𝑹
##⋎
##ت
##𝐮
##く
##⨄
##⨏
##₁
##𝓁
##⨉
##ﬃ
##ز
##ʟ
##ب
##ق
##م
##⋒
##𝐬
##↬
##⇅
##د
##𝑿
##ɩ
##϶
##𝑛
##⑪
##𝑟
##𝝎
##➁
##⊋
##ʈ
##𝑱
##▯
##ⅳ
##￥
##⇨
##ᄒ
##∎
##▭
##ϐ
##⤳
##ℭ
##˂
##⇴
##˟
##𝐝
##◂
##𝐲
##⅜
##𝒟
##⎓
##⨎
##𝐰
##₇
##خ
##◼
##𝐋
##⑩
##𝜿
##⨅
##⊒
##𝒂
##⟸
##𝐆
##𝒮
##ط
##ʌ
##⅙
##҂
##𝑰
##ه
##⑥
##⋌
##⌷
##∟
##ᴨ
##𝑸
##㎛
##𝒍
##𝑐
##⊿
##𝒢
##𝐐
##ـ
##➋
##≝
##╪
##➢
##ح
##ʊ
##𝜶
##˄
##⌂
##⪝
##𝕋
##𝕍
##┆
##𝐛
##♥
##ⓒ
##❶
##𝐜
##ɿ
##𝒗
##𝑙
##⿴
##𝑖
##𝑡
##❒
##⨯
##ϭ
##ⓐ
##ⓓ
##⍺
##𝑠
##𝒰
##𝝃
##≏
##❷
##ض
##≟
##ⓑ
##ĸ
##ⓕ
##ɤ
##⑫
##𝒦
##⇢
##𝜼
##𝑩
##ƴ
##𝔼
##⢢
##𝒒
##ɲ
##ԑ
##⥁
##⋓
##ج
##𝜽
##➊
##ش
##ⱔ
##ɪ
##⧠
##ⅶ
##ƥ
##▸
##𝛼
##₹
##𝔻
##➝
##𝕎
##➂
##һ
##𝒯
##₸
##▱
##𝒑
##◄
##➃
##ⁿ
th
the
##er
##on
##ti
##ed
##es
##en
##in
##or
in
##al
of
##at
##tion
##nd
##re
##an
##ro
##it
and
##ar
##as
##ic
##ec
to
##ing
##ent
##el
##is
##ation
##ol
##ac
##et
##mp
##ur
##le
is
##ig
for
##ul
##tr
co
con
##ly
##ow
##id
##ith
with
##os
re
##il
##uc
as
##us
##im
##ve
##th
pro
##ter
be
##ce
al
on
an
at
ex
st
##ts
##tic
##od
##um
##ff
##ure
wh
that
by
##ere
was
##em
##st
##ity
are
##am
##ate
##ess
##ot
##om
##ated
##ain
##ab
res
ch
##ut
sh
##ver
##rom
di
##ect
##tin
comp
##ge
##ad
##ir
de
##si
ac
us
sp
##igh
##qu
##pp
this
or
from
were
##ting
##ou
##ay
##ib
##iz
##oc
##ap
su
pr
tr
en
fig
str
##ment
##per
dis
##se
##op
ph
##if
##ich
##ase
##ati
##00
##ical
##ore
##vel
##ell
##ant
##bs
##ch
inc
##di
##ine
we
##ted
par
##ers
el
##ations
##ence
##ag
##yst
##duc
can
which
##tions
ad
show
mod
diff
met
##able
##and
se
##ater
##orm
##ous
sol
high
##all
it
app
inter
##ion
##og
##lu
per
##ri
##ace
##ial
##un
##ectr
##ave
##ther
##tain
##ak
te
pl
##ding
##les
##ved
ne
##low
me
eff
##erat
##ance
##rou
##ue
resul
##act
not
##amp
##yl
int
pre
##ution
##form
##aly
temp
tran
val
##ign
sur
##ies
cons
##ach
differ
bet
##ound
le
##ide
##uct
##sion
##ally
incre
have
##so
imp
##ents
temperat
un
form
rel
##tive
10
##action
##eter
##ph
##de
##ates
using
##age
##we
##pl
surf
##ased
##ens
these
##tiv
ev
meth
hy
tw
##erg
##ween
between
used
##ong
##cess
stu
##end
also
cr
ob
has
##ite
##ip
##enti
ab
low
cl
tim
##ystem
model
##enc
temperature
samp
two
##vi
conc
pres
resp
rep
sc
trans
than
##ari
dep
##gh
been
##est
##ties
##ary
system
pol
cont
##ific
##ight
##ort
all
he
##ating
cor
car
struct
surface
##uld
##ility
##uch
analy
##ves
##vely
##ond
des
energ
rec
cal
##ons
ass
##res
gr
sim
##ures
meas
##ill
cell
##ene
am
qu
dec
obs
##ized
##eld
##ectro
obser
pos
##ree
##ms
##ular
##entr
##ech
##yn
results
more
ag
there
und
##ied
exper
##der
exp
hyd
produc
acc
##ction
##ass
mol
so
energy
##ble
where
char
##tim
##te
##ange
##oth
##ected
obtain
electr
ox
##ield
different
##ym
reg
sign
method
time
no
##ose
red
##iv
process
##ative
equ
dat
calc
##ard
experim
fe
##etr
one
spec
##tical
##ection
##trib
##ang
##ors
vari
partic
12
##ix
nm
li
##ely
mic
##ues
##gen
min
ar
under
##−1
af
shown
et
##ition
##fer
gen
pe
cur
ind
##ist
hydro
##ared
##ined
data
##yp
##ases
water
##ici
nan
concentr
##ane
how
##tivity
##ack
°c
such
##aus
##out
other
##ork
20
com
col
op
fr
ma
##ization
fil
##cl
electro
##aterial
sm
over
num
##ear
##sis
fun
##ost
##dition
##ps
both
material
observed
when
lar
into
after
obtained
bi
perform
##ame
##ber
appro
##ium
fol
##ments
calcul
##ile
based
##ress
##tively
##ros
##uring
##eng
reduc
##agn
grou
##ub
but
##ast
##olog
due
##ever
however
solution
##ize
##ox
##als
values
gener
es
po
cat
only
typ
##ome
##ectively
##ption
present
their
bec
phase
si
each
appl
##lex
its
##dy
##xim
lay
im
ver
##ability
##our
##ia
15
out
follow
##acter
spectr
mo
deter
up
##ensity
mm
##ength
indic
fir
det
higher
##fore
structure
##oun
vol
##row
study
order
##ail
##ential
11
molec
##ider
##ould
fin
ste
carb
reaction
determ
##ency
sub
##cr
##one
param
13
well
##ll
flu
function
##gr
cm
experiment
found
respectively
##atter
rate
##adi
table
during
ther
small
cryst
rem
consider
first
##cc
may
fur
pot
samples
##ct
proper
analysis
##br
##av
##ded
subs
studi
value
##anc
then
##her
prop
peak
##ensi
##ects
decre
addition
supp
signific
magn
##aph
non
##2o
em
dire
def
##par
therm
##rough
##orption
cy
##orted
##emical
simil
effect
##pt
electron
loc
measure
mix
character
ter
flow
similar
##ured
##lo
complex
level
man
fact
significant
further
shows
field
##atic
line
##ditions
number
##ough
contro
same
concentration
ins
abs
19
cap
conditions
our
dr
case
lo
sec
work
##ie
##ness
through
200
##osed
##ause
sel
mon
##ently
inf
three
##velop
100
acid
state
sample
pow
sl
ref
range
poin
##resp
atom
##ick
syn
##echan
ir
increase
size
most
develop
corresp
prov
properties
br
sin
while
##ulation
use
eq
##ual
##ective
set
layer
could
##tig
##ole
rati
lower
mechan
##ement
##ination
press
##formation
##o2
some
##etic
##tit
phot
##ited
##rop
will
ml
mat
region
cells
##echn
depend
go
main
14
##vious
carbon
thus
##ory
##osition
conf
##iti
occ
distrib
tre
curr
grow
inves
techn
investig
25
##eters
mg
##own
because
##hib
therefore
##crib
##are
compared
##gan
fre
##tal
##ive
reported
##ension
##ides
##ish
##ove
large
very
30
##ds
##ys
compound
if
band
##ture
contain
inclu
formation
lim
density
giv
conduc
##actions
##ays
##gg
##onding
##ha
disc
they
##ural
potential
16
gas
initi
ion
##ites
sing
##sc
##lement
const
polym
compar
##uted
fl
##que
mean
1h
synth
measured
ii
about
##asing
##its
corre
import
##ication
experimental
##ission
##ann
pressure
##10
dim
##usion
effici
describ
calculated
##ust
##sible
##ock
##osph
##istic
gl
##ffici
##ities
##itu
mem
exc
ro
given
parameters
do
##ines
ratio
##amic
frequ
dem
##ise
50
##ount
requ
##ke
second
yield
mul
previous
kn
current
beha
transi
##ma
lead
cle
within
ext
materials
##let
occur
ads
comm
above
ser
gre
cu
id
repres
sil
metal
behavi
##ains
area
##ention
bl
pred
load
chemical
##ically
performed
##ath
tak
chang
sugg
prec
maxim
##ft
single
hz
approach
aver
expl
ge
##oh
##utions
total
result
##ord
see
oper
new
comb
studies
##ages
estim
optim
##ules
extr
bas
type
strong
spectra
mass
##ism
increased
heat
der
stress
since
long
##ross
coll
particles
##oci
thick
sti
oxid
solid
bond
sch
##ins
micro
##ume
##yr
organ
##round
##ger
thermal
ti
those
synthes
following
##ified
med
bu
section
bound
##over
systems
important
##ark
##ade
presence
power
control
cataly
##ov
##trate
should
carri
multi
##ores
design
constant
##ult
impro
transfer
corresponding
##ression
##rr
##ice
##ording
##ants
vis
distribution
group
compon
dist
##ind
##orph
inde
determined
18
##ale
prep
inv
hydrogen
av
##ob
dom
##arly
point
tes
effects
prob
aff
##etry
##ology
separ
##olution
##ynamic
activity
##eth
##ences
##na
##get
##med
increasing
measurements
bel
##ogr
film
stand
au
induc
prote
figure
pur
nit
would
performance
cd
polymer
17
applied
##ibr
##aw
##ns
ang
growth
according
predic
##ational
experiments
##ately
##astic
change
showed
##ward
μm
oxy
micros
free
##50
interf
coe
less
solv
##ired
length
respon
##ced
##omp
nat
here
maximum
##orb
radi
fu
sever
##etric
conver
species
ca
##ump
##tern
specific
average
approxim
##12
##ient
liqu
##work
##entif
prot
##des
treat
air
##sequ
prepared
membr
peri
super
##ible
described
activ
##other
liquid
examp
##af
##roduc
direct
##til
oxygen
allow
neg
##sed
##ful
cou
films
##ug
coeffici
structures
initial
groups
several
frequency
##atively
nmr
magnetic
##ucle
any
crystall
local
##vir
influ
##alu
24
considered
emission
sour
proble
techni
emp
phen
four
simp
##ator
bin
demons
enh
evalu
ni
possible
methods
##anol
linear
##viron
along
characteristic
##ax
##lor
test
proposed
correl
increases
without
sugges
volume
standard
end
associ
diam
compounds
dimension
##rix
poly
reduction
40
step
posi
contrib
dev
capac
##ector
##ological
light
environ
##aces
##ute
patter
period
##oss
anti
##els
matrix
sem
various
pa
changes
transition
charge
##ex
presented
even
particle
molecular
##ustr
ions
ed
compos
exhib
molecules
##ink
##ten
silic
thickness
related
##ually
##ire
pap
net
amount
norm
electrode
zn
quan
difference
##ulf
much
mixture
identif
##hy
atoms
##eloc
inst
cent
##az
##ets
##old
ach
pt
coupl
alth
displ
although
simul
larger
behavior
##oid
##egr
interaction
constr
eth
good
term
models
temperatures
represent
dri
##ric
cross
##ymm
22
ke
part
##irc
content
##red
containing
##itation
##ained
efficiency
ax
treatment
strength
##onic
need
##ake
##cop
relative
prof
shap
contr
studied
##inal
##ule
nanop
minim
refer
absorption
concentrations
achie
contin
##ograph
shif
like
##alyst
veloc
##ances
##ier
volt
many
##olved
##oph
example
##earch
##ality
wa
research
cm−1
information
reduced
diss
graph
##tice
lig
substrate
pp
environment
##ning
##up
significantly
strain
##ctions
##ably
decrease
particular
pd
##me
states
intensity
times
resist
rele
equation
adsorption
organic
##uration
production
investigated
##och
sum
##cept
formed
comparis
##ving
factor
spin
nucle
60
fer
##sts
paper
polar
carried
schem
applic
##co
##put
feat
lit
resid
##ification
top
response
integr
sw
seen
##11
developed
signal
##ian
dynamic
crystal
sensi
known
product
##pend
defined
around
##pper
##ty
detail
oxidation
ms
co2
associated
had
ele
star
cyc
##artic
ful
discus
##led
resulting
ann
added
loss
##reg
ligand
proced
effective
solutions
spectrum
dop
catalyst
na
##hed
##ears
##cer
##ep
##ior
##atis
por
##to
##anes
indi
tur
general
23
before
##ided
analyz
cycl
##truct
29
near
direction
##ching
expected
ben
refl
normal
peaks
mode
##ces
##uster
##pa
path
levels
consist
##cence
including
demonstr
sites
coord
conv
tar
below
##ying
caus
cer
nanopartic
##iver
mechanism
hand
accur
being
comparison
28
transp
del
complet
bar
##rogen
21
processes
scale
##ode
diffusion
phosph
glass
membrane
room
orig
fit
stability
##ling
mn
controll
parameter
##ished
introduc
wave
geom
wid
real
ec
##ived
##vant
velocity
active
##inc
interface
fib
back
##ason
ray
avail
alg
cluster
err
confir
numer
sens
spectro
sus
made
condition
##hz
reach
acet
induced
ret
reve
beam
amp
##cs
##icity
##electr
h2
alk
##ethyl
composition
##xt
2h
optical
again
##omer
lab
##val
source
terms
sal
hom
continu
network
##dr
las
does
protein
interactions
observ
##bility
##app
via
fraction
products
complexes
bul
off
colum
##o4
allo
prom
synthesis
##itude
##ening
thin
circ
ep
prim
element
position
hum
00
suc
##ogen
##ables
problem
##ither
chann
influence
cases
##ices
cool
##of
inhib
assum
oxide
fluid
phys
angle
sequ
resistance
##apor
pul
stre
disper
applications
mes
structural
unit
reactions
##aled
coun
lat
binding
rot
ill
diameter
smaller
##assi
##ner
react
##ored
components
functional
##o3
##20
plas
site
distance
side
depos
expression
substit
layers
plane
force
coefficient
improve
##inated
boundary
35
solvent
diffr
sulf
ul
emplo
attrib
##tif
eas
rad
vac
##ision
target
stable
mmol
relatively
##iss
80
oh
199
##abil
voltage
ring
bulk
capacity
##ogene
provide
##utr
chlor
development
maj
space
contact
microscop
##ially
equil
nanoparticles
better
wall
required
##inetic
crack
transport
agre
spe
major
slight
27
fac
bro
pure
imm
##ressed
26
rates
den
300
chrom
available
intr
##active
deg
weight
##ily
positive
correspond
cost
among
calculations
previously
##umin
tio2
morph
dm
##line
fluores
rat
parti
lif
##ateg
##ritical
procedure
act
produced
short
##arm
evid
att
laser
scheme
highly
whereas
algor
relations
algorith
coating
##erc
down
##aling
##anced
summ
oil
##cent
##hip
31
dependent
series
##medi
wt
specim
##ady
orient
agg
cn
close
negative
kinetic
##ists
h2o
either
electronic
characteristics
inj
33
factors
sn
nh
config
32
##omes
cover
exch
90
##vid
exam
##ero
coupling
limit
role
still
hel
symm
taken
##ising
buil
simulation
weak
##pr
indicates
points
methyl
##2o3
##ibri
##bit
tub
measurement
##acted
##scop
deposition
fo
underst
deriv
intern
mar
spectroscop
##ulated
##eti
differences
moreover
##ank
##ses
##ised
shape
curve
core
nitrogen
technique
surfaces
consistent
curves
common
45
class
conductivity
arr
cre
conn
success
component
mark
lattice
another
nec
foc
link
approximately
##onal
##ety
estimated
means
flux
toward
mechanical
37
correlation
##ven
irr
##grad
follows
##less
##cos
uv
hence
##acy
scatter
contrast
##most
rh
##amm
##orded
filter
##ibrium
##13
sat
70
generated
vibr
fab
note
ampl
elements
column
##queous
##char
additional
critical
wind
demonstrated
##ok
centr
pyr
##more
individ
##ject
dou
fa
application
hydrox
aqueous
##lished
est
mel
speed
finally
determine
adj
furthermore
##electric
reference
block
tetr
gap
situ
500
consequ
##verse
agreement
derived
hal
followed
theore
subsequ
fuel
grain
##lic
##aced
pc
decreases
iii
reason
depth
medium
decreased
ps
34
modified
diffraction
equilibrium
##emb
##ously
precip
ppm
##yed
them
fix
transm
simple
way
variation
mainly
400
heating
images
##rd
##zym
zero
##ining
degrad
center
mhz
upon
##try
##chemical
ground
conversion
typical
##bal
few
##atory
mom
pattern
ear
detection
independ
nature
##aving
36
75
##ope
tun
dna
hol
loading
theory
overall
##ple
clearly
99
functions
focus
electroly
relationship
soil
plate
util
dependence
##pec
rece
equiv
catalysts
##umption
05
recently
dimensional
shear
hard
literat
bre
reson
indicated
phases
irradi
image
respect
rap
pb
types
##izing
heter
impact
##ans
final
selected
##por
ga
interes
gel
##wh
##tically
indicate
adsorb
##resh
pop
discussed
resolution
neutr
equations
wavel
separation
hex
broad
ru
wor
features
chain
##ges
axis
ch2
attributed
molecule
numerical
##iform
##aining
atm
achieved
must
pair
tri
treated
almost
##izes
error
##ott
directly
##ires
##ques
indicating
natural
##−2
stage
basis
literature
assess
leads
necess
composite
gu
soft
##ged
quantit
regions
simulations
recorded
electrochemical
##15
##pol
might
##ffer
##cri
plot
aut
##isted
##ii
cycle
remov
figs
did
##cl3
lik
mixed
repl
quality
greater
##ots
rapid
hydr
best
slightly
altern
##ended
invol
industr
shift
tests
run
##ta
mak
##isms
##ino
##otrop
ultr
provided
biom
##omb
full
understand
slow
##inate
##encies
##ectrom
##ton
life
anne
occurs
synthesized
equal
solar
account
enzym
generation
##li
benz
algorithm
pore
uniform
plasma
eng
##ud
##ks
##cn
##itor
##pti
##aps
rather
##arb
##14
physical
##orts
quant
##ectivity
fluorescence
feed
limited
aggreg
areas
channel
least
activation
techniques
48
fail
analyzed
powder
nor
##brid
mac
identified
##lusion
rang
clear
##ortion
ce
##omen
pv
chem
ol
prac
domain
3d
##ols
catalytic
isol
recover
enhance
generally
nanoc
##acement
##oxy
##isting
wavelength
##lying
ch3
estab
alumin
##ayer
exchange
atmosph
rand
##uter
self
highest
##onduc
##ams
##acts
ve
spectroscopy
silica
strateg
base
devices
require
theoretical
##art
decomp
convention
support
width
evolution
frame
fixed
##inant
crystals
internal
zone
recent
##inity
patterns
device
caused
valid
deformation
diffic
dy
employed
incor
##esis
collected
##ody
nanos
energies
years
squ
random
characterized
##tes
controlled
quantum
anal
##way
construc
later
drug
prepar
cf
relax
##22
electric
photo
detected
ap
assemb
tested
bands
dam
##man
devi
la
##land
lip
sed
interesting
##aries
gly
human
##ography
xrd
enhanced
comput
statis
degradation
##ending
intermedi
likely
##ones
lines
eu
scattering
##ga
##hes
spati
give
assumed
espec
cann
##ogeneous
stirr
fract
38
degree
##bers
minimum
##und
especially
pub
dro
excitation
independent
index
##60
##°c
radiation
##30
equival
glo
located
##cp
individual
log
incorpor
##allel
o2
gi
far
against
electrical
##fact
appear
graphene
efficient
pack
conventional
##anning
provides
sedim
conducted
##iles
##ways
vary
##sm
possi
hybrid
##cm
##alled
steel
trend
days
edge
exist
assign
evaluated
bott
variables
becomes
##he
electrons
cannot
fill
deposited
cp
transform
elastic
removal
gradi
contribution
##ij
##rete
##ecting
primary
input
anion
potenti
shell
kg
cooling
phenomen
appar
moment
advant
##anti
modes
great
morphology
95
##pped
now
bonds
##iew
000
##pre
improved
##urs
orbit
01
er
cs
##ators
wide
mill
dynamics
atomic
##tle
vacu
ethanol
##itable
pm
c2
parallel
illustr
know
electrodes
impl
##int
##ont
profile
reduce
view
##ensities
strongly
stabil
##ae
##ensive
##certain
##onom
##ceed
progr
prior
55
leading
buffer
doped
##ched
she
##iter
combination
coefficients
tra
##mon
configuration
barri
cut
necessary
usually
geometry
sensitivity
dischar
obj
maintain
bio
magnitude
double
multiple
dried
##aging
evapor
difficult
zno
##ood
extern
copper
sod
mw
five
expressed
##ew
methanol
##entioned
dil
sr
3h
upper
rough
output
instr
##ring
vi
accuracy
environmental
interest
chromat
gene
##40
##rosion
confirmed
complete
hydroph
##allic
##eration
pan
auth
vs
2d
cho
##hyd
yields
considering
day
certain
##16
often
##ether
princ
optimal
alloy
13c
42
##tor
open
stor
ide
39
##18
modul
reactor
represents
produce
##olec
iron
##atives
suggested
units
##au
vector
ens
behaviour
clos
operation
princip
continuous
uncertain
toget
together
successful
##ocy
##agnetic
suffici
calculation
predicted
substr
sk
next
combined
turb
m2
left
##pping
ess
##pri
external
subst
##fe
proteins
##ental
spectrom
revealed
##tructure
photoc
ratios
##ounts
green
##ometer
spectral
precurs
electrolyte
10−
suggests
##for
enc
seem
appropri
introduced
py
ethyl
extraction
analyses
building
##oxide
plant
substrates
waste
##hedr
suggest
##osen
diag
analytical
##uts
seg
right
cdcl3
radical
release
##ics
find
steps
##cal
ability
exhibit
detailed
inside
tit
##ern
##iting
tube
supplement
perme
bo
though
having
until
suitable
arg
signals
denot
150
osc
vers
land
65
##ologies
engine
implement
##tered
across
allows
##erv
##atch
dispersion
height
ris
post
towards
storage
n2
##urb
plastic
bottom
spatial
##otherm
commerc
investigate
##ware
finding
bal
cath
irradiation
chosen
fluor
mechanisms
onto
sequence
crystalline
##ler
##amine
half
preparation
depends
fav
finite
absorb
pass
prefer
##ense
expos
remo
specimens
proton
tiss
corresponds
grid
silicon
variable
break
nitr
key
ionic
problems
fields
negl
−1
fast
43
don
spher
make
lith
ligands
ram
included
##wise
mid
vacuum
fabric
dry
##iction
easily
transmission
origin
02
display
tem
##odes
noted
opp
44
asp
oscill
percent
equivalent
##omers
rich
gives
sodium
##aster
dd
calibr
wr
ur
proportion
##enyl
ha
47
include
##fs
place
probe
displacement
##ilic
whole
appropriate
##zation
involved
intermediate
able
dissolved
frag
excess
##ibility
regim
pump
evidence
pi
##view
esi
motion
operating
coupled
##sh
clusters
profiles
porous
##oxyl
##assif
obvious
formul
absence
removed
central
longer
fully
orientation
processing
##istry
##isation
polarization
##obic
relaxation
polymers
satis
##ging
##ird
examined
##aged
##enced
resulted
hr
pen
incub
cycles
instrum
##eral
symmetry
rock
coated
drop
latter
become
gradient
tend
analog
##iding
sci
##eric
damage
pulse
bor
mut
decomposition
avoid
hor
ster
observations
propag
##ead
spl
sensor
##ataly
sio2
sou
mp
##tering
mentioned
useful
last
microscopy
attr
amino
grad
gluc
bur
flex
membranes
##×10
85
semic
41
bonding
hyp
adv
##zed
secondary
adop
bene
μl
called
sensitive
iss
global
bed
##vers
##loc
53
1000
appears
visible
estimate
partial
explained
noise
1−
probability
conclu
gold
##ectors
six
vertical
demand
simult
##uture
bacter
simultane
original
cul
##da
##elling
##ryst
##80
mixing
framework
##ledge
shar
consumption
##idine
stret
technology
whether
approaches
52
##abol
##ne
sources
observation
accum
##by
feature
early
##romatic
cond
s1
accel
##ik
constants
brid
##plet
classif
optimization
interpre
##utes
nonline
eqs
km
##ina
cation
nam
max
vir
scanning
transformation
discharge
ever
prev
isolated
placed
##ders
remains
annealing
failure
##lood
conj
coordination
dielectric
summar
swit
future
##tures
jo
selectivity
larg
##cl2
amplitude
criter
antib
distin
raman
enti
econom
##ales
exposure
##ask
exhibited
##zz
46
##ca
knowledge
labor
##atin
ze
subsequent
##h2
cyl
body
chains
determination
barrier
weigh
##ters
excell
##lier
instead
accept
pepti
residual
72
##lysis
amorph
purp
third
anis
##olecular
oct
subj
injection
pati
##ections
led
regard
##gn
affected
repe
##enz
diffus
thresh
supported
il
reli
##tration
needed
excellent
law
occup
blu
##ographic
starting
color
lowest
grown
az
wet
ow
amounts
##cription
adsorbed
designed
radius
constit
##thal
##ron
relation
67
nonlinear
quite
sediment
expan
novel
derivatives
defects
turn
##io
conclusion
affect
superc
##bor
fiber
54
sand
##arch
authors
requires
salt
57
achieve
biological
established
dig
fracture
pers
##acing
##itting
loop
consequently
software
indeed
##ident
completely
##avity
##water
commun
tip
smo
nano
lam
constrain
emissions
amb
##atically
frequencies
##gin
counter
viscos
plan
quantif
consists
##ash
particularly
variations
neutral
##unction
population
sizes
biomass
van
##ering
49
poor
600
typically
##sp
magneti
tb
acids
anisotrop
hist
forms
da
expansion
take
##acial
sto
amorphous
let
hole
depending
56
positions
decay
vapor
resonance
washed
text
extracted
benef
widely
approximation
##ahedr
120
extre
##ready
aim
already
##ivers
allowed
sb
cc
uni
atmosphere
##umines
##orting
overl
add
sections
scen
metals
report
susp
slope
cause
mach
precipit
year
##entially
##urated
2a
probably
##ufact
##ify
77
age
expon
##uctu
tum
entire
fluctu
##uit
excited
98
cyt
bub
evaluate
ta
##organ
steady
##coh
##roph
program
ln
ct
investigation
basic
condens
understanding
##ouse
##odynamic
semiconduc
strategy
##ancy
mpa
tool
event
forces
contains
##py
done
every
separated
aer
tor
63
μg
phenyl
proj
access
reducing
cm2
clean
##yc
play
##ads
##tics
reached
manufact
simpl
corrosion
alloys
nps
1a
acqu
62
nb
scenari
cham
hf
square
details
move
64
extended
##ened
03
horiz
composites
except
ammon
grains
relevant
viscosity
neigh
carrier
hot
monitor
exact
prog
##ape
accurate
usa
assigned
##mit
taking
facil
restr
aromatic
s2
rob
little
##ars
commercial
##ycl
simulated
decreasing
alkal
##go
never
specimen
reproduc
tm
occurred
##dehy
al2o3
tensi
distributions
importance
sets
isot
div
working
iden
location
dip
##1−
activities
solub
96
deviation
cub
iv
exhibits
##aff
versus
blue
infr
alcoh
ice
rp
mv
rise
kinetics
alternative
recovery
modulus
##ogn
conjug
tensile
scre
nearly
ts
##osity
varying
connected
detector
confirm
vit
supplementary
##erate
enzyme
threshold
##17
cas
##truc
##orous
precipitation
##ry
##icted
attach
reag
##osite
deliver
250
chloride
##inary
demonstrate
earlier
##itions
c3
kin
lack
computed
rig
58
what
manag
doping
arch
sa
##eless
combus
##ometric
##uting
dc
metabol
transitions
##ressive
mice
forming
dt
extent
angles
regime
##oses
##arily
always
identical
nanot
draw
fund
nar
represented
comparable
rever
presents
suggesting
hem
##eck
tox
##ids
##igr
##ef
mixtures
inhibit
clim
recogn
ones
concrete
activated
metallic
modeling
adap
parts
66
immun
##ci
similarly
##till
disloc
ra
suspension
composed
##be
calculate
events
heated
hour
97
##hydro
enough
##osis
ns
describe
monol
testing
##inates
elim
chall
risk
asymm
68
stack
enhancement
review
distinct
orth
adhes
##25
stim
synthetic
solvents
##ground
##sive
friction
##omm
poss
##ings
numbers
cv
smooth
04
inner
chromatography
molar
saf
satisf
evaluation
##−3
stirred
quen
s−1
homogeneous
gover
##ude
optimized
##mi
59
defin
combustion
ent
refr
##acl
comparing
experimentally
##acting
etc
fine
##tructures
tissue
computational
pse
subsequently
align
hypoth
sampling
##elf
melting
substanti
cancer
##ld
gc
thi
2000
dye
illustrated
diagr
##olds
mr
precursor
g−1
exposed
##time
desp
ger
flat
##polym
successfully
charged
stiff
sufficient
##tile
assay
statistical
despite
abund
3a
property
198
quantitative
patients
##max
attention
l−1
white
medi
##icial
spectrometer
unique
phosphor
pseud
ht
supply
horizon
desired
##gs
earth
np
cyclic
chamber
stream
##ochemical
##ature
bias
dark
objective
##sa
china
apparent
just
mc
##set
media
pip
mesh
rol
background
##min
tc
##ylation
chemistry
##uk
compare
seems
help
once
channels
generate
sea
800
narrow
##roc
resour
possibility
111
distances
##ises
distributed
pet
69
rotation
78
##igen
variety
trad
too
north
fitting
ambient
recept
ceramic
laboratory
modification
110
87
microstructure
selective
##hic
promot
improvement
inser
bis
advantage
unc
industrial
boundaries
oxides
imaging
hyper
actual
##eness
##kn
microscope
coal
concept
possess
interval
nanotub
##enes
surfact
##ulate
##lation
carboxyl
makes
−0
uncertainty
phosphate
dominant
##carb
sig
integrated
##uminescence
##nel
51
sharp
mineral
quad
pores
predict
titan
glucose
prediction
axial
ds
ba
2b
dissoci
plants
differential
promising
##odies
existing
deep
1n
hcl
station
migr
takes
identify
sulfur
vibration
mobility
##den
##iral
##mn
nuclear
##estion
##21
phenomenon
particip
##ocl
dose
pf
nd
06
interfer
impur
errors
##bi
densities
balance
##order
76
elev
74
responsible
fam
culture
##luor
73
1b
##pc
batter
namely
##ital
absol
##exp
##activity
redox
##h4
##uble
bran
acetate
mil
##alth
##bed
gd
dimensions
percentage
remark
showing
outer
exceed
window
copolym
costs
electricity
static
cathode
##sk
photocataly
management
thermodynamic
##hydr
making
##23
calibration
seed
zr
surround
##dehyde
south
porosity
get
mt
additionally
mb
##ectiv
underg
solubility
rt
##odic
##cted
integration
agent
##agonal
128
assembly
listed
track
nucleation
special
excit
potentials
fold
practical
##temp
##dle
##inder
remaining
plots
characterization
reactive
contam
##static
accomp
interfacial
label
univers
##so4
throughout
purch
ideal
arrang
##elding
fundam
imped
stretching
scan
recomb
shifts
graphite
##cep
findings
whose
sensors
##ellow
facilit
plates
##2−
essential
ranging
rapidly
calcd
fabricated
dise
4h
pyro
assuming
quadr
kept
lithium
##urations
##ements
month
gave
ss
existence
##idal
selection
pert
capacit
##olar
##ulsion
##bly
decision
08
rout
absolute
bes
defect
07
uns
cold
reflect
gran
instance
neglig
vehic
cos
##eared
anim
##ipped
##tries
##fc
lc
disorder
saturation
86
##ogenic
bending
causes
brom
##tre
extract
black
commonly
varied
attemp
adjus
##arding
cam
83
initially
##lish
plotted
plat
neverth
##ext
nevertheless
##ream
dmso
##ch2
##enting
ic
##icular
iter
##ict
donor
c6
fe3
84
c1
88
##zo
applying
##tine
phy
##ches
matter
anode
simultaneously
zeol
assumption
xps
fresh
linked
##otyp
purpose
autom
##thern
hydrophobic
stra
distill
residue
crystallization
coatings
##gf
desorption
stresses
mir
blood
79
pathway
polymerization
circuit
supporting
har
contributions
##dt
tradition
conduction
##ls
tp
##rich
remain
remove
map
yet
##equ
conformation
construction
##ips
gain
inters
##idence
quas
evaporation
##ryl
penetr
hydroxyl
measuring
qual
peg
propagation
recons
##oly
visual
assume
consum
changed
##onses
substituted
##ru
directions
volum
pairs
125
##apping
specif
substitution
94
compression
bp
responses
##orter
mis
##stream
experi
inhibition
spherical
estimation
read
phon
yellow
##itten
fault
cations
focused
templ
quart
cb
bios
##rile
##atus
health
93
silver
fibers
negligible
correlated
prol
prevent
detect
2010
effectively
genes
minor
horizontal
explain
olig
rein
discre
4a
correct
array
infrared
magnetization
ho
89
gaus
normalized
001
formula
##rication
summarized
delay
sustain
wear
description
filtered
inver
technologies
##plc
##ned
82
care
92
upt
##tance
serv
monitoring
saturated
examples
roughness
##oxid
dft
action
61
purified
##ymp
concentrated
##70
involving
insul
##amide
spr
perf
mob
concer
##idity
mal
classical
published
##ury
immob
repeated
##layer
instrument
wee
##insic
clin
tension
##back
dissolution
##sian
derivative
##herent
##gence
fundamental
glyc
proportional
past
observe
subjected
db
##acent
compositions
perturb
md
head
networks
differenti
##oids
stiffness
who
maintained
her
##ensor
generat
##aters
##uck
choice
waves
favor
includes
semi
##rystall
nick
reports
turbul
##read
artic
straight
alkyl
tempor
fractions
pbs
nanof
context
monomer
cult
alcohol
inlet
reduces
sic
procedures
considerable
optimum
bri
eigen
##avy
interpret
rf
closed
aluminum
adopted
german
purchased
outs
##ichi
fragment
##onit
1d
driven
ether
##ods
lateral
math
residues
tolu
flows
resis
symmetric
71
photon
host
stages
cruc
contribute
##graph
quartz
regression
contained
magnet
thf
nanow
ft
limits
extrem
orbital
cavity
sheet
equipped
implies
mus
##tices
separate
uptake
bath
##2s
cand
collision
displayed
3b
gal
advantages
09
regarding
intensities
adding
adjacent
##ulose
##anth
mol−1
trig
cooled
centrif
robust
elemental
configurations
needs
reasonable
domains
##organic
changing
mos
methane
bear
front
m3
nickel
incident
agents
gradually
harm
pin
economic
peptide
cubic
duration
2c
impedance
tunnel
consequence
##ze
immedi
industry
nanocomp
h2o2
compr
dimethyl
##ometry
identification
##phenyl
situation
hp
tail
largest
lt
specifically
sigma
besides
permeability
immobil
accumulation
quanti
ensure
middle
filled
transferred
vibrational
##nt
##come
world
##erge
##apped
engineering
##lim
flame
nc
ng
undergo
##illary
##ries
discussion
700
mesop
##ylene
reinfor
zinc
manner
stored
enrich
unf
tumor
dispersed
regul
contents
investigations
check
project
terminal
##mic
##19
setting
lengths
constitu
##pendicular
hydrolysis
perpendicular
##100
belie
river
afm
electrostatic
##mal
regular
transient
inclusion
##con
fitted
##bl
consisting
candid
begin
shaped
protoc
hg
pic
concluded
soc
neighbor
##inement
exists
planar
##thers
representative
faster
inorganic
##onitrile
bey
true
##ra
partially
emerg
extension
nodes
mi
stronger
climate
slip
viv
purity
##24
rs
lifetime
##ights
##ortun
##ift
categ
face
##atig
##pe
ham
##icit
spacing
fatig
##rol
others
##etrical
δt
marked
semiconductor
passi
evident
addi
diagram
intrinsic
toluene
hplc
stoichi
##fa
binary
cis
beyond
traditional
determining
fall
##ahedral
loaded
constructed
kj
##ni
ld
retention
cour
dipole
fabrication
easy
##atom
heavy
gaussian
establish
fem
##azol
island
divided
opposite
market
methodology
received
tl
fatigue
##ends
##romagnetic
sput
pressures
nacl
sph
currently
isotherm
##ories
rings
written
search
incubated
melt
##tingu
quantity
##activ
cellular
moist
define
127
rare
valence
shifted
merc
estimates
powders
130
grade
##inations
##abilities
##ions
safety
walls
polic
##ano
ign
expand
constraints
soluble
##ellular
##alk
capacitance
win
ester
qualit
late
reveal
##otropic
cylind
criteria
formulation
lipid
carbonate
empir
works
coordinate
competi
strains
phenol
##asons
tin
affinity
principle
isomer
reactivity
momentum
correction
##bt
utilized
##ert
##rence
stirring
proceed
fat
coverage
code
centrifug
6h
fluctuations
##sin
##ste
reveals
anisotropy
2009
implemented
interv
aldr
asymmetric
##f2
r2
progress
purification
thereby
##inyl
##adily
slu
sensing
aldrich
involves
##cepti
doc
##erated
start
81
ranges
phenomena
introduction
locations
ordered
distingu
##ynam
damp
pix
serum
oriented
embed
radial
node
localized
microw
gate
planes
##rown
unli
pent
expect
mediated
capture
periodic
##ancies
lear
##33
##off
driving
feas
predom
ka
tex
od
##ounted
assessment
##ws
##tir
reconstruc
##ley
##ema
##iaz
brief
periods
scenario
subject
interm
vivo
dp
atmospheric
segment
calcium
##ba
##vere
dich
mostly
deform
appeared
2011
##tonian
averaged
correlations
iod
hs
question
hydrocarb
requirements
hydroxy
##ester
##ev
itself
##angular
ultras
monit
trace
acidic
wire
##oprop
adhesion
covered
##eline
suscepti
##aldehyde
hardness
##rs
jap
##tz
scales
poll
predictions
shall
bacteria
surfactant
a1
spread
attached
migration
photocatalytic
cm−2
##aneous
respective
issue
##sip
voltamm
basin
##bo
129
##opl
a2
hydrog
2008
cement
ri
food
integral
collection
uses
ded
reaches
kv
created
measures
aggregation
fuzz
drying
reflection
edges
c4
price
capillary
losses
oxidized
thermo
figures
91
raw
shorter
ultra
entrop
strategies
providing
batch
tg
vitro
growing
bone
ftir
converted
bonded
extremely
clay
tn
pharm
pn
discrete
rest
conform
reverse
keep
angular
sequences
complic
infl
infer
##adium
volati
dissociation
holes
superconduc
dominated
moisture
former
##benz
nom
compressive
sd
amine
hu
computer
bil
##32
fm
resolved
version
##arr
180
matric
delivery
annealed
interestingly
5a
influenced
fermi
neur
splitting
challeng
incorporation
his
aggregates
##tp
##ively
solved
alumina
##omal
released
##orem
bearing
surve
2p
gases
neutron
##ielding
youn
chiral
remained
dislocation
##ils
greatly
nanotubes
##∂x
algorithms
##ster
dissip
rene
acetone
matrices
##cribed
monitored
pathways
##ades
unkn
##azole
cnt
adjusted
receptor
joint
##oir
recombination
fourier
variability
compens
artif
fuzzy
bubble
4b
unknown
belong
vess
2012
simply
##puts
phonon
anions
##90
##inite
reserv
season
renew
induce
forward
##ortex
lag
route
europ
aspect
owing
implant
rule
interfaces
min−1
##po
nh3
##acet
incorporated
ci
compan
hc
blocks
substitu
summary
##etries
##co3
ash
training
convergence
mit
hexane
ch4
##amolecular
waters
##valent
##air
precision
no3
benzene
##rect
referred
##ensively
##plets
fs
promo
kind
oce
cm3
arc
highl
quasi
quantities
emit
temporal
course
ball
isotop
##itic
cracks
onset
away
stem
empirical
circular
reservoir
conserv
##fl
exchang
##ception
##ather
explicit
droplet
pell
td
reliable
eg
diamond
furn
##ious
##ishing
collo
orbitals
##iety
resistivity
##ulph
considerably
distilled
disapp
microwave
##ai
extensive
representation
##itect
ionization
ls
tubes
stock
regen
105
absorbance
surrounding
offer
coordinates
fc
mobile
2007
##letion
zones
issues
rain
scaling
injected
##cryst
##oti
obviously
depicted
readily
definition
my
##h3
tables
datab
resources
operator
consideration
box
national
occurrence
heterogeneous
spring
plays
##role
resin
possibly
alone
columns
hours
annual
##ush
##onate
occurring
transverse
criterion
transmit
enanti
researchers
discover
otherwise
rpm
outside
capability
xi
##era
hm
##cu
cnts
cellulose
protons
##nary
moderate
family
dos
##dinal
scaff
switching
ali
##2o4
allowing
steam
iso
perfect
immediately
germany
nitrate
reagent
diagn
retur
panel
t1
##ee
hamil
##itr
analyze
clinical
k2
dend
s3
diluted
hypothesis
##urr
numerous
1c
architect
argon
implementation
limiting
root
flexible
ip
platin
##elled
chloro
##part
coo
mev
ket
moving
jet
##onium
reasons
coordinated
solids
closely
rb
rigid
cylinder
essentially
varies
classification
task
##oy
moiety
examine
japan
centers
salts
article
analysed
developing
pron
trends
ly
equip
zirc
attractive
built
##arse
crucial
h3
trial
longitu
underlying
velocities
exponential
radicals
flo
##ument
dimer
##iling
exclu
proved
implic
explan
address
titanium
currents
accord
##ung
opening
reversible
producing
##ounced
##otox
sufficiently
ocean
##inic
acceptor
notice
deposits
c5
##itive
hb
carriers
zeolite
sintering
##nm
accompan
coast
loads
##hs
acetonitrile
leach
monolayer
naoh
##ayers
datas
primarily
##osel
computation
rna
denoted
##phot
scientif
##elet
aspects
2013
oxidative
harmonic
160
alter
##elastic
##acellular
musc
##thermal
port
##agen
900
sulfate
##acchar
eight
enthal
##izations
became
elong
∑i
sphere
##ili
os
trip
variance
ultim
quick
platinum
dual
treatments
##can
superior
transpar
inverse
##ulations
##pher
##rot
supports
2006
fluorescent
##lyl
instit
replaced
sheets
350
capable
demonstrates
entropy
recomm
hd
ethylene
ammonium
##copic
##n4
stain
portion
modeled
##where
##ky
mag
basal
##bial
gan
##oline
plasm
pronounced
##ovsk
##ch3
elevated
europe
scientific
environments
potentially
##has
ammonia
##estern
majority
cobal
displays
disease
rocks
ch2cl2
##urally
##ochrom
incubation
appearance
predominant
cod
−2
denotes
##etallic
precursors
machine
longitudinal
coinc
lign
intense
movement
crude
involve
condensation
pseudo
solve
worth
accordingly
largely
140
qds
quenching
rank
aa
dram
hamiltonian
relationships
produces
##n2
hyster
197
beh
2005
##cale
##ometh
centre
##la
embedded
cds
sediments
spray
inset
copolymer
##uals
shapes
template
adjust
assessed
intervals
hexagonal
nanor
memory
nanoparticle
recycl
cycling
##tives
member
suppl
antic
alkaline
controller
ei
trim
##ohy
complexity
##ogeneity
tf
leak
association
university
microp
##df
##x2
kcal
nh4
##ifications
enzymes
luminescence
vectors
pk
106
actually
aryl
reliability
platform
##bles
inflamm
##ats
wash
standards
beginning
substantial
isotropic
acous
affects
ferro
tools
droplets
##ocene
diver
cobalt
protocol
workers
labeled
t2
charges
big
permit
linearly
stationary
giving
bacterial
##emble
systematic
##ilities
entry
pu
public
curv
vehicle
chemicals
lic
rotational
dsc
sf
##asc
##kin
fragments
interpretation
##minis
battery
##b2
sulph
ole
##pi
degre
partition
##izer
members
slowly
uk
##flow
ell
rib
adminis
lys
##otic
put
carbonyl
centered
disp
##iation
rod
##ban
stere
conclude
penetration
wil
dmf
orders
create
##tm
acquired
describes
##c2
##cript
equipment
pulses
pyrolysis
##osing
sorption
##ohex
young
gpa
dichlor
toler
2−
arrangement
wood
bridge
pcr
##estim
kr
concern
ml−1
bn
drugs
vortex
kbr
##ih
filtration
##encing
overlap
##times
126
veget
cylindr
approximate
butyl
explo
cree
1s
104
controlling
##asts
perovsk
shock
mer
##itudes
module
p2
homo
geometric
virt
modelling
p3
look
hollow
apply
energe
conven
450
interference
nanostructures
transformed
nutr
##l2
##uclear
reflected
protection
cutting
survi
complement
6a
micell
2π
nitro
emphas
beams
##tors
illum
discuss
tensor
tetra
##erved
practice
bare
dense
slud
catalyzed
##35
countries
cylindrical
clou
inh
humidity
oc
spectrophot
ace
##bm
perm
##r2
compati
disturb
pie
outlet
dot
advanced
##oming
5b
hn
hydrothermal
learning
careful
tank
mesoporous
reagents
degrees
solute
atten
ped
extra
insp
express
wastewater
sug
##link
adequ
du
complicated
##chlor
cleav
damping
pal
parent
##02
##imetric
etching
polymeric
biof
antibody
##dc
spectroscopic
crystallographic
setup
unst
pg
pretre
pyridine
bf
accordance
upd
buck
characterize
words
favorable
stainless
split
metall
continuously
vic
simultaneous
##pended
graf
##arc
fluids
bip
dioxide
processed
##while
##idin
adi
sludge
##aft
##ematical
user
specified
limitations
##uling
entr
database
##lined
validation
impurities
##45
renewable
why
3c
indirect
homogen
accurately
##ectiveness
controls
zh
nanowires
cust
nanom
operated
ca2
##ancing
conjugated
overcome
mono
efforts
impacts
randomly
jun
##ints
explored
##assium
mapping
regulation
##000
##xy
else
volumes
deviations
moments
representing
extensively
nf
urban
##ults
manufacturing
synch
##irable
2014
##axial
na2
service
bm
hysteresis
encaps
mort
conclusions
vibrations
employing
spot
hep
sector
rect
principal
bus
macros
layered
policy
arbit
manif
packing
scr
mwcn
maps
##ln
house
sun
seism
effectiveness
potassium
severe
##umptions
mot
d2
scenarios
mf
nanocryst
junction
##mer
##inating
surpr
arbitr
2004
##ah
shr
concerning
##ss
##tc
mathematical
minimal
prepare
##ro2
toxic
skin
lin
prolif
##enium
rub
compact
hydrophilic
##otype
operations
daily
brown
##akes
interpreted
irradiated
herein
illustrates
##ares
minimize
instability
irre
science
##h2o
lum
targets
acoustic
warm
diffuse
diameters
##osan
##i2
pit
cu2
fe3o4
terr
103
cleavage
understood
##yrene
##phosph
corrected
whe
prelim
meoh
hydroxide
promote
similarity
western
lang
##ograms
ten
##lux
erosion
aggregate
pec
##crystall
consisted
foam
geometries
##orphyr
mgo
date
object
2θ
functionalized
plus
toxicity
glasses
##mo
rgo
##ata
weights
##ered
microm
downstream
row
##iving
stabilized
##esium
invest
valu
improving
absor
p1
2003
unlike
rules
##mark
acceleration
govern
anisotropic
vacancies
screening
##po4
combining
b3
increment
conducting
##reh
marine
x1
inhibitor
seven
peptides
##icate
firstly
clar
##oring
tris
aeros
attain
instruments
##mann
constraint
trap
dynam
solving
kinds
##apy
##2o5
aqu
aug
inhibitors
incomp
trigger
anodic
goal
refractive
verified
ltd
r1
months
oz
tissues
recovered
discon
rm
neu
aligned
##load
furnace
unstable
preferred
attenu
##amin
brain
##night
segments
dl
fis
rhe
efficiently
introduce
coarse
mouse
hetero
shallow
analyzer
deduc
glycer
##34
nominal
ef
assembled
physi
2002
pas
yb
##ivity
##down
##acer
tendency
coul
##electro
significance
uncertainties
apop
bol
chit
deion
multipl
##ugh
curvature
swe
##what
sv
somewhat
inn
bc
thor
precipitate
boron
assumptions
##aul
spectrometry
occupied
round
propose
singlet
ito
δh
nr
##urrent
##aking
compreh
ordering
##31
arrays
contrary
excl
community
##kt
##rite
susceptibility
diffract
rc
texture
##ull
explanation
twice
connection
isotope
polyn
cum
abundant
availability
##tosis
impurity
hier
briefly
##used
weld
abundance
nt
gf
contacts
dies
flood
aggl
epoxy
##mm
mang
plateau
imid
slab
creep
polarized
lact
overnight
s4
##zn
genetic
##son
remarkable
sputtering
induction
til
b2
explore
preliminary
transl
technical
electrom
crystallinity
fire
attack
glut
hierarch
classes
stacking
yielded
epit
electroph
##abor
fish
khz
haz
closer
sized
instant
thermally
vessel
precise
##gu
fed
chip
infinite
cast
facilitate
wavelengths
##73
simulate
modulation
bright
meaning
digital
supplied
differentiation
visc
stimul
sense
regional
##enol
recrystall
2001
substantially
dh
fuels
kw
##polar
animals
##wards
restricted
conductive
##olysis
amide
doub
simplified
colour
##odal
ee
##enge
social
##crystalline
requirement
##omial
piec
##acryl
pipe
intermolecular
acquis
behaviors
southern
runs
accompanied
surprising
dyes
##vs
apparatus
own
dw
meanwhile
##∂t
chel
##k2
inversion
##dynamic
influences
crosslink
##ote
perovskite
transf
pollut
schemes
##oma
capt
##uker
##uge
blank
gam
mor
##tinu
##ery
ascribed
##gl
benzyl
gm
east
yl
##azine
nic
history
feedback
duc
bruker
enthalpy
##pd
construct
lac
x2
manip
fusion
acetic
##ucl
##1−x
yielding
dilution
recognition
hydraul
exception
formal
oscillations
convection
resonant
ure
modifications
candidate
chitosan
assembl
spheres
confirms
tang
##ifying
gaas
##ogram
dislocations
icp
generating
survey
##ethylene
##wid
polys
tunneling
frequently
elsewhere
bioc
summer
dn
exh
stoichiometric
indent
emulsion
##igu
fluxes
generalized
ceramics
intercal
##cd
animal
applicable
##luid
starts
##ynth
drawn
##width
defici
pes
tree
nuclei
separately
collap
##osites
##sr
pall
northern
##olym
efficiencies
sno2
native
##acements
##75
dimensionless
assisted
backb
liver
liquids
acetyl
stated
##a2
##berg
cationic
invari
##tt
µm
##iii
##olve
##aves
alignment
turbulent
co3
##nat
idea
##apeu
probes
triplet
sound
benefits
ferromagnetic
##atase
##fall
perturbation
match
refined
qualitative
artificial
nox
refinement
reaching
enables
135
challenge
rou
denote
expressions
ceo2
distortion
pale
combinations
cop
acquisition
##ocyan
neural
aging
none
metast
travel
defl
##erals
bim
enab
sides
##east
transcription
##arities
packed
##hi
##44
classified
started
##endi
operational
##tial
##iax
##ohydr
l2
record
##ematic
indices
drain
biod
cytotox
deionized
performances
stabilization
##iness
tax
deposit
##vity
discrep
evaporated
##olation
analogous
insight
hydrogenation
weighted
hrms
roughly
bit
extreme
no2
exactly
vinyl
##ocytes
absorbed
piezo
kα
agric
dissipation
transparent
ferment
conservation
baseline
experience
##ifer
6b
##egrad
weeks
covalent
confined
hold
passive
squares
strip
spont
compress
##band
diagonal
##activation
##ken
hydraulic
##−x
sliding
##26
bind
weather
objects
batteries
stoch
2015
anomal
fair
strand
old
##quin
zro2
cracking
qd
interact
twin
ultrasonic
hydration
vap
fro
##28
flexibility
photoelectr
je
fe2o3
depletion
unre
##tis
effort
leg
##osomes
precipitates
west
quin
purposes
normally
ros
illumination
camera
coli
nanocomposites
alkali
individuals
anth
retained
suspended
distinguish
macro
mos2
nanocrystals
##oidal
stochastic
dic
hardening
populations
catalysis
macroscopic
barriers
minerals
##±0
span
serve
quickly
coulomb
##obenz
introducing
drops
##xp
monomers
isomers
scal
imag
insertion
intercon
diesel
eb
communication
aun
naph
##anged
eigenval
buildings
bubbles
hydrodynamic
nh2
gh
proxim
##zer
reflux
pool
discontinu
circum
##53
statistically
beneficial
broadening
tga
causing
trif
##occ
document
resistant
feasible
##ondri
inputs
seismic
##scs
suppress
lake
reflectance
conductance
vacancy
gp
immobilized
nanofib
cyclohex
##othermic
les
reyn
cad
ellip
pani
##iline
bridging
utilization
##zing
mim
opportun
contamination
decades
irrever
satell
fatty
101
obtaining
peop
signaling
b1
##s2
1999
ij
##olet
acts
intermediates
localization
##asks
carboxylic
2n
geometrical
porphyr
##anese
winter
ways
polynomial
microbial
##ucid
##42
disk
ant
bsa
ranged
tough
week
trapped
realized
segreg
eqn
calibrated
colloidal
##p2
reynolds
##ords
immers
filling
##ieties
displacements
##alc
papers
##iol
commercially
foss
∼1
oven
dx
cooper
calculating
physics
bd
enable
illus
rectangular
swelling
milling
microscopic
viscous
additive
##omethane
resource
turbine
nio
acting
magnesium
harves
##ames
performing
##endix
fibro
appendix
weaker
morphologies
sorb
reflections
apart
participants
ren
faults
illustrate
microf
build
pris
copolymers
neighboring
lies
gravity
ord
mitoch
manufactur
accep
people
kev
extracts
virus
forest
##crim
gn
radio
##ergy
cry
##ophilic
df
replacement
tof
jour
e2
##rac
actu
##h5
##rose
void
bif
##imer
##65
compute
##totic
verify
mirr
proliferation
##king
glycol
hall
supr
muscle
numerically
sintered
δe
traff
##agg
titr
reflects
steric
interpol
freed
elucid
170
##eting
architecture
tends
##ifier
##opes
c60
charging
550
shrink
enter
mitochondri
5d
micelles
theoretically
attracted
statistics
arbitrary
rev
quantification
discreti
disordered
lu
turbulence
libr
micrograph
degen
contour
reform
uniformly
beads
1998
motor
reconstruction
tight
happ
satisfact
137
international
describing
strati
extend
tag
photos
m1
discrim
volatile
gro
regarded
##×10−
theorem
dust
slur
leakage
backbone
operators
comparisons
cores
lens
prin
neglected
offers
therapeu
lib
inhom
slower
pixel
nearest
package
matching
ves
adapt
extrap
l1
sds
assays
efflu
comprehensive
##ht
bs
pristine
colon
kit
forec
mainten
exhaus
gradients
mild
intramolecular
##eper
##ovol
eventually
hydroly
photod
trapping
believed
##e−
7a
initiation
gb
##cin
spectrophotometer
124
##ka
maintenance
negatively
chol
∼0
radiative
soils
glycerol
benzo
sched
quantify
multilayer
##agon
##oac
fibre
enriched
washing
supers
rearr
##sen
freedom
desirable
bt
##opropyl
chemically
quadrup
organization
held
##emic
amin
tan
isotopic
employ
acceptable
moieties
thought
##elial
respond
deal
##alent
##55
exciton
sym
minutes
asymp
##cing
##ormal
favour
das
substituents
##log
123
palladium
isothermal
##inge
boiling
##atite
generator
t0
lp
afford
drift
rms
die
ternary
electroc
journ
bay
4c
##kl
##ulating
subjects
rn
##tructural
coil
flash
##oor
collagen
om
orientations
4f
supernat
induces
##yb
interlayer
metric
##fication
directed
photol
coherent
ans
acryl
stations
pz
##gst
cloud
modern
recognized
death
koh
mole
pointed
regardless
##sn
polycrystalline
n1
presum
##aturated
resonances
jump
nanocomposite
subtr
buckling
rotating
principles
quantified
monot
enzymatic
indicator
298
validated
##aer
eds
##etal
##hydrogen
dehydr
stri
##terior
lignin
##otherms
diffractometer
hi
##position
mart
realistic
orthog
planning
##lat
ea
ends
##olving
phosphorus
arise
##29
##lyp
benefit
fe2
oste
item
dpp
90°
resultant
cyan
paths
unch
cathodic
irreg
220
aluminium
##ada
adequate
arm
electrolytes
##after
tt
ncs
##oe
polyp
multip
lamp
antibodies
morphological
addressed
zircon
neurons
margin
m−1
dots
nn
adduc
##jector
reactors
##ato
##ophene
##abatic
chloroform
wild
##pb
##27
road
dataset
photoelectron
son
calor
equilibr
installed
##∑i
sectional
anhydro
##36
inflammatory
##illed
##vities
##emistry
136
pig
tungst
unfortun
e−
agree
wells
hos
cg
gels
volumetric
vicinity
pollu
iner
blend
starch
methoxy
vor
importantly
bilayer
lap
nanoshe
rats
mounted
tab
guid
company
reinforce
thicknesses
fcc
k1
##enite
##imid
comes
1200
108
pretreat
##k1
schematic
##ologically
elimination
carlo
smallest
positively
vegetation
cumul
independently
##urf
incidence
saving
##ogenesis
calcination
picture
##rie
dest
thorough
sir
branch
f2
flask
138
109
refs
satisfy
lost
neither
piezoelectric
cro
monte
115
octahedral
##ylated
isotherms
guar
##ectic
##ycin
rainfall
diethyl
unchanged
##jectory
photovol
hydrocarbons
unfortunately
oscillation
##trans
trajectory
rg
confidence
##01
133
took
notic
dispersive
divers
amplitudes
transduc
refrig
helium
receptors
##forward
limitation
naf
weakly
analyte
axes
##ients
nw
analytes
meet
##uary
intracellular
million
cyclo
gaps
ensemble
nanorods
carr
##aterials
m−2
bench
lm
interconn
pmma
immersed
traffic
cultured
##orth
fossil
##ecu
arising
european
1997
##oped
filters
medic
dox
dimin
inert
pharmac
hydrocarbon
islands
atp
coastal
##ascular
substances
##ova
affecting
competitive
lie
##ember
##pha
anch
lamell
leaching
camp
##ested
agglomer
h1
fp
monocl
vehicles
diverse
so2
##lar
##fr
aust
physiological
projects
simplicity
chcl3
voc
##anthan
suppressed
##oles
##rought
studying
groundwater
bic
peroxide
survival
continuum
running
mh
usual
quantitatively
##iers
uh
scans
##erve
completed
regeneration
##atalyst
wafer
prices
mercury
calcined
##48
apparently
##e2
131
cultiv
##ogenous
sampled
marg
anhydrous
filam
drag
o3
isolation
gib
fibr
scope
determines
mu
mism
fri
attempt
intersti
constrained
interior
metabolic
kb
a3
diversity
107
##othermal
##o6
trun
analyzing
arises
dramatically
initiated
pellets
promin
eastern
loops
encoun
##econd
entries
switch
photons
hazard
hab
enrichment
##aceu
deduced
##isson
##43
torsion
maximal
nozz
##vd
antifer
##sl
fourth
capacities
rej
##omeric
##zen
circulation
atr
collapse
##onyl
##anned
intra
captured
adaptive
interacting
ozone
imposed
##m2
powerful
arri
##point
tuning
##xx
tert
trib
share
cuo
##rin
synchron
mcm
bromide
inhibitory
lb
cla
pain
rid
valve
##dis
derive
skelet
ultimate
vapour
thiol
e1
valuable
proven
##yne
lumo
corro
##tivities
notably
pollution
hydrogel
alcohols
##iaxial
examination
competition
patch
contributes
blends
epr
dichloromethane
rins
##pective
10−3
cultures
users
nir
##va
inhibited
voltages
drastic
complementary
gauge
expanded
ff
cardi
silicate
imper
din
drive
additives
naturally
sealed
gase
##imeter
confinement
embr
tracking
recip
∼2
upstream
##49
apoptosis
offset
triple
##eller
adsorbent
ages
lew
##fficient
antioxid
aq
behind
fisher
binder
recommended
dynamical
##aven
situations
administration
ber
pdms
methylene
tap
hund
anionic
predominantly
categories
collector
destruc
stat
##ophore
h2so4
superconducting
exponent
##epti
anatase
orange
recording
therapeutic
##rel
ty
##atest
nanotube
successive
conformational
##opolym
##icts
leaves
ig
come
##aceous
symb
gamma
regulated
locally
volcan
##crip
slurry
guarant
##ners
pva
bent
pla
strengths
μmol
##asion
accessible
protected
innov
irregular
utility
##t2
utilizing
kern
##ommod
pretreatment
carefully
rr
apt
noticed
poisson
toughness
keeping
spi
quenched
alb
##aceutical
f1
##regn
breaking
depths
accommod
fes
nucleus
sustainable
clustering
inherent
urea
##wer
∑j
##elt
tot
##bur
ey
convenient
couple
attachment
challenges
##78
##pheres
expensive
##opyr
spots
transportation
maxima
##66
##ius
infection
pyrid
brit
132
option
rd
bars
remarkably
##function
ot
ww
viability
structured
sie
hypothes
tungsten
δg
reacted
##tron
living
motif
##illing
attempts
straightforward
##ki
dendr
continued
farm
##herence
earthqu
xyl
fluctuation
##iltration
##tructured
##ounting
replic
linking
sometimes
##eta
μs
750
145
male
photovolta
newly
targeted
d1
contributed
##ionic
initio
ae
##osal
wang
foil
repeat
outc
##asting
manganese
satellite
##rupt
emitting
carbons
substituting
diffusivity
gaseous
afforded
scaffolds
improvements
accumulated
therapy
##nas
adhesive
impregn
fly
##rystalline
##jectories
134
##reci
##tility
consumed
austr
tel
##isely
trajectories
promoted
mj
return
##p1
ignition
actin
rearrang
sac
list
partly
diseases
tetrahedral
motiv
reinforced
status
pil
sequential
mutant
explos
##cher
ferroelectric
##phal
##wich
fits
##38
tetragonal
improves
choose
##inding
650
##ortions
deformed
deuter
c18
satisfactory
recycling
tolerance
lanthan
hrt
altered
exceeds
hierarchical
accepted
3j
agn
compart
regimes
electromagnetic
highligh
pulsed
chr
1m
##ione
dur
scattered
119
distorted
paste
##vari
olef
##ritic
##wr
topological
carry
lewis
secre
1996
fung
surfactants
investment
ah
anaer
sugar
computing
asc
microstructures
thr
##arith
productivity
exclus
3000
eliminate
b3lyp
effic
sulfide
##cepts
neighb
petrole
biodegrad
metabolism
ai
excluded
##osystem
diagnos
5c
hundred
biodies
strict
medical
cha
evidenced
##inger
vo
petroleum
##uth
flowing
government
chi
polarity
fluoride
select
fermentation
spontaneous
perspective
elongation
generates
mas
antim
##nb
removing
orthogonal
##f3
fec
##osome
##vis
ald
consecu
gs
conve
centrifugation
stud
caps
leaf
suppression
4d
jus
##hen
speeds
##lab
##avi
##amb
##elves
vesic
ghz
##vation
121
prolong
##nts
retrie
##ued
##aken
qualitatively
voltammetry
cros
##van
sensiti
10−1
believe
10−4
##zr
maintaining
h−1
etoac
virtual
holds
programm
dg
precisely
##ocal
unless
prominent
##okes
##etrically
challenging
mrna
irreversible
rational
install
logarith
explicitly
edx
wider
nad
slopes
##pyr
wavegu
##imide
ki
sandwich
aerosol
cumulative
blocking
pixels
validity
cleaning
coex
biodiesel
effluent
spik
breakdown
semiconductors
emitted
perc
##mu
journals
##a1
disappear
call
metam
vide
shells
supernatant
evaluating
proof
masses
##rote
valley
##ultural
122
enhancing
joints
para
ppy
1990
potent
enhances
prem
nu
mg2
##draw
accounts
zn2
detectors
turned
rubber
##41
##gap
rolling
8a
cac
##avimetric
systematically
tryp
bund
ferrite
broken
nine
s5
industries
fwh
trifluor
##ostat
immer
ys
aux
inserted
mno2
##orphic
##fol
0°
ic50
unus
plu
##t1
1500
ib
##mg
##uss
##99
casc
##ogle
author
##yll
difficulty
hv
fragmentation
240
focusing
overlapping
tu
casting
crus
appreci
fd
neat
city
##ysical
1995
##eding
fuller
##alian
##urity
staining
compatible
hydrate
mask
diaster
##len
transist
##−h
persist
##fied
quater
##iring
withdraw
torque
##bilities
dashed
fairly
google
dopant
sett
home
##oupl
##erator
references
perh
deflection
score
pharmaceutical
pph
accelerated
d6
exit
approximated
##hold
trials
exec
uran
miss
mwcnts
carboxylate
indication
permeation
nanoscale
stretch
catch
refers
indicative
iteration
arsen
mismatch
panels
averaging
arh
chromium
##x1
##idden
7b
dilute
perhaps
cm−
##ops
bandwidth
##oted
rhod
americ
##37
chromatographic
microspheres
quadratic
guest
swcn
indicators
polished
##ender
bh
faces
modules
immersion
projection
##d2
cz
##mc
##yclic
nanosheets
verte
median
##ana
optimize
inferred
pollutants
photocurrent
financ
118
rac
scaffold
encod
##versal
triangular
diagrams
112
##geting
##eor
electrocataly
web
hydride
dehydrogen
transformations
##oxane
diastere
facility
lamin
ecosystem
pss
governing
feasibility
##imetry
anaerobic
soci
148
agricultural
reactants
sy
##field
accounted
gradual
amines
seasonal
##∫0
corrections
insulin
##uent
extin
glycos
excitations
roles
nozzle
deeper
leaving
##roton
##err
technological
hit
traces
topology
delta
constitutive
cm−3
31p
increasingly
eut
sweep
deb
manufacturer
adiabatic
##ims
candidates
glu
196
##56
advance
presumably
singular
assignment
hydrochlor
##ido
che
##ensors
1100
##aa
##f6
parametric
triang
elevation
##−t
##rophic
##elines
hydrogels
esc
radii
210
##apac
##2c
deterior
##estions
mirror
##bc
##bra
##odec
transmittance
##iton
targeting
salinity
fractional
fwhm
demonstrating
##anted
helical
alternatively
services
prove
mutation
reactant
formulations
unity
matched
steels
stm
envelop
invariant
ple
efficacy
necessarily
segregation
considerations
seaw
##sibility
##rt
reinforcement
specificity
peo
universal
dihydro
##treated
empty
kcl
scholar
pay
centrifuged
immune
war
meter
116
intensive
acceler
cone
##aker
pubmed
mitig
nl
rab
reasonably
##rup
##oms
pellet
trade
regis
coales
inte
checked
digestion
##rp
foot
possesses
eis
molten
##cation
##47
photovoltaic
stoichiometry
say
discovery
identi
justif
doublet
##ui
perman
attenuation
triaz
curing
protective
bases
serious
∼10
confirming
##f4
##uits
photoluminescence
kg−1
##electronic
g2
jeol
spatially
diode
crystallite
amplification
incorporating
spins
##ette
precipitated
flav
questions
fi
designs
##no
##lands
instantaneous
##worth
energetic
##c1
monolith
dv
http
pac
patient
##oxidation
drawback
practically
satisfied
##accharide
passing
##eff
popular
underestim
arrow
achieving
hinder
##mitted
cleaned
117
tect
floor
institute
thermoc
##ison
scaled
bank
mamm
agrees
lowering
consecutive
applicability
##ji
##orh
##elle
lot
##phatic
fibres
moves
sg
integrating
ks
records
properly
4000
dead
concepts
organized
glob
named
dimers
aged
substituent
discrepancy
absent
biofil
saline
##olic
2×
vanadium
easier
elasticity
##antic
creation
hh
##ocycl
##xi
intact
inclusions
nanowire
motions
aper
##ilane
shelf
modelled
nutrient
##gent
wo3
going
untreated
##h6
interstitial
subun
physic
shad
concerns
alpha
carbide
mant
##onite
##ozo
spinel
histor
corner
hybridization
esters
carrying
unsaturated
pedot
financial
reviewed
lub
##∂y
adapted
equally
sud
##ostatic
pumping
welding
alloc
kt
insu
perkin
##day
conjugate
meteor
voids
i2
permittivity
antiferromagnetic
2e
analogues
suspensions
terminated
##amer
inspection
wires
##iders
repulsion
selectively
edta
##head
##stock
suffer
screen
snow
beg
##uly
topography
aliphatic
syr
##ophosph
heavi
operate
crop
139
##cho
molyb
anticip
failed
##shore
noting
reproducibility
bodies
predicting
##μm
2016
modify
stokes
aliqu
##ney
cl−
2s
invent
##anine
##ectives
inform
termin
ccs
so4
repair
fouling
macroph
nafion
lipids
hap
##urface
microstructural
##oster
detach
##ishes
##ford
supramolecular
pw
implying
benchmark
plasmon
##ifies
##46
mah
grating
rotor
##∑j
overestim
chemis
experienced
##accharides
outcome
##ymmetric
##emp
steep
zns
covering
paramagnetic
trop
h2s
##δt
yr
frozen
synerg
creating
##oselectivity
fron
porphyrin
##ench
cvd
glassy
constituents
phyt
extinction
category
##ophil
waals
immobilization
##arboxyl
bpy
shim
kh
aes
triv
##olin
wetting
##muir
fulf
tuned
implantation
hl
##rh
companies
consistently
##actor
windows
doses
##b1
zeolites
5°
##ills
asymmetry
sam
metabolites
stimulated
langmuir
residence
280
##omic
repeti
governed
formulated
detr
predicts
microc
##ulties
##ycle
vul
eu3
jud
cohes
stimulation
accomplished
##zu
elution
lor
chlorine
##ombic
colorless
convective
consistency
crossing
volcanic
nanofibers
kinematic
##eine
oils
ablation
difficulties
##2n
shoulder
tasks
c8
overp
decline
proceeds
nitride
markers
##39
links
cytotoxicity
##uv
##ked
objectives
pcm
preserved
san
cholester
aforem
aforementioned
crust
crosso
poorly
pvdf
##ochemistry
yeast
imaginary
documented
tic
incomplet
complexation
modal
cw
inoc
##use
comparative
hept
exhibiting
grinding
canc
lh
imply
passed
##isc
capital
mechanics
##asive
feedstock
epitaxial
proximity
micrographs
ni2
metastable
10−5
abr
commit
uniaxial
kpa
##otide
##oration
##olecules
art
lying
##ahedra
##erates
kda
cutoff
till
##ests
granular
##orbed
membered
actions
beta
##inants
shrinkage
##ilst
insol
explains
fash
compares
detectable
##ula
##dm
routes
heterogeneity
microorgan
feeding
monoclinic
mec
titration
whilst
a0
##omethyl
implications
insulating
thems
themselves
retard
##obut
cf3
102
differs
##ara
undert
±0
diab
##ompati
characterised
acidity
undergoes
chen
walk
atl
cyst
lati
facile
sap
##−c
230
frac
ruth
##95
g1
crossover
embry
##sing
##rog
ccd
synthesize
chil
lung
ils
indentation
junctions
alge
citr
rupt
##vp
protonated
replacing
brittle
∫0
scalar
exchanger
usage
concerned
preference
osm
regulatory
attribute
biot
validate
tom
meta
wi
carbohydr
##osa
solidification
ldh
fashion
multic
disad
merck
disadvant
polyethylene
##acc
gall
cao
mantle
##onucle
rutile
aid
##phase
preferential
##opy
bounded
mention
5000
originally
mitochondrial
afric
##ives
absorber
outputs
functionality
##tia
raised
hno3
sba
deproton
foundation
entirely
##n3
v2
decade
reversed
kd
burning
grained
unexp
##ani
pei
spreading
superf
##atorial
hopping
##uminescent
##titude
fused
identifying
macrom
165
##forms
##uli
##orn
noticeable
##uments
pad
physically
smart
cavities
remote
continental
adopt
kinase
##oside
##partic
subc
versati
master
0001
highlighted
##co2
country
landsc
programs
capabilities
##tituted
genome
spite
ble
rinsed
defining
identity
s0
zhang
10−6
quaternary
diet
k−1
##afluor
probabilities
healthy
antioxidant
##ref
counting
degraded
ith
streams
settings
wc
gibbs
##pro
p4
disturbance
rods
insufficient
trimethyl
mutations
hrtem
interpolation
c12
##ei
##oplas
s6
convers
ton
rays
phenolic
##obacter
cantile
##adec
injury
delivered
recrystallization
linearity
boltz
reproduce
prism
##idene
158
filler
hind
##mod
##98
attributes
polymorph
variants
ramp
particulate
aln
timing
branches
aimed
bring
heteros
##fluor
cot
qi
##z2
146
##ece
5h
thoroughly
promoter
##onv
lagr
bov
##aturation
decomposed
cfd
communities
bir
eliminated
board
exergy
ecl
##g2
thio
##ophen
##fold
##olid
diphenyl
lf
debr
mini
calcite
vacuo
polyst
organisms
oscillator
austenite
habit
##osphere
##oresis
unusual
pvp
inequ
rice
viable
pcl
freeze
replace
minima
decl
1994
marker
ny
n2o
##−n
collisions
##hedral
implicit
002
ultraf
##dx
options
braz
##f1
fluorine
##atomic
projected
flight
heights
forced
##iliary
##ymph
c0
extracellular
##ilation
predictive
secondly
kernel
martens
asymptotic
##imp
fg
##arn
auto
grafted
comprised
##elocal
phosphorylation
adm
ultimately
antibio
dehydration
avoided
discovered
assumes
distinguished
cage
missing
insights
##ool
sept
delocal
thicker
encapsulated
encl
sharing
##stone
##ulsive
##acrylate
estimating
hydrated
##fort
exhaust
pem
aw
visco
standing
donors
count
##opent
india
finger
endoth
electronics
crystallites
dodec
eigenvalues
excessive
aden
assist
iterative
##uran
155
correctly
condensed
sedimentary
library
impos
x0
ruthenium
heart
##ammonium
##tio3
robustness
helix
##plicate
orr
##ocarb
∼3
safe
monod
latit
alternating
functionalization
##versely
enabled
brine
boltzmann
men
compet
aunps
pitch
iodide
fluence
scav
seawater
encour
deficient
filtering
handling
##azolium
mortar
lymph
##auer
debris
reflecting
fn
agcl
investigating
stabilize
consequences
##inese
grafting
##urate
r0
traps
comprising
designing
business
sers
##tl
preferentially
##96
chinese
##2o7
ll
##pin
subset
instruc
permanent
bb
contraction
hous
computations
cyto
abrupt
supplemented
tms
d2o
##oyl
exclusively
torr
mun
crystallized
outlined
##−δ
##orient
widths
accounting
grids
aldehyde
insoluble
##going
adjusting
ak
##ey
sudden
##ilent
pat
##ynthesis
##ihood
loadings
pun
polystyrene
nab
gray
vd
greatest
transmitted
slag
m−3
##0000
##kely
bore
cholesterol
##olith
##iration
##ands
holder
contributing
deplet
##anding
extending
perfectly
martensite
bovine
enlar
##osilic
humid
laminar
unexpected
positioned
##ubs
stained
orthorh
covari
##eres
amyl
agilent
unlikely
implanted
domes
facilities
360
∼5
arranged
incomplete
##emia
dipolar
corr
ej
entang
##obl
shan
n3
datasets
pca
bandgap
compli
gasification
belonging
structurally
∑k
d3
encountered
dex
venti
marginal
δp
geological
cytos
asphal
strik
consuming
noble
##ophysical
cav
preven
mud
##91
mn2
turns
continue
urine
##oselective
resemb
demands
cd2
##uler
macroc
conflic
##otypes
##ankton
−3
online
roof
correlate
190
rearrangement
prolonged
tectonic
ferroc
zeta
##pen
thermocou
##idium
cere
##atories
2h2o
orthorhombic
auxiliary
##fo
algebra
biocompati
intercalation
focal
114
broader
nws
logic
##worthy
abstr
flexural
insulator
##ples
##obenzene
##bin
symp
conversely
blade
##abs
items
diagnosis
alteration
attained
##acu
##asis
ysz
ligh
##echanical
##ountain
intersection
##ella
##tid
vial
equals
##l3
monolayers
translation
ortho
theories
wheel
thermogr
storm
machining
breast
cd3
totally
sustainability
##cf
indium
gram
comprom
bridges
##tinal
trees
integer
connections
##−0
scores
circle
ker
microfluid
##umar
reversal
1993
gw
8b
##enn
goes
147
impossible
markedly
conformations
adaptation
co3o4
intended
pill
##ek
##well
##house
po4
pock
subm
thre
begins
symmetrical
##aked
tidal
##61
compressed
integrity
v1
##bp
##rf
##alysis
soot
fewer
vg
solvation
cdse
##cool
elmer
exothermic
nanomaterials
mining
##dom
##ozoic
transported
dramatic
surprisingly
stop
styrene
purely
##agneti
um
monochrom
fif
reforming
oxal
fertil
guide
galvan
##adzu
ui
##har
coming
terti
closure
fabricate
linker
anten
abn
etched
laboratories
850
compensation
acyl
pyram
recommend
q2
##amination
ultrasound
string
plume
jan
##restr
##→0
spaces
fal
##97
deactivation
mann
##ctive
women
biochemical
satisfies
friend
combine
thermod
##amate
##63
bill
−5
waven
aims
expressing
coherence
##ona
pph3
microch
redis
shimadzu
saw
adjustment
aperture
320
wavenum
##dehydes
convex
completion
modulated
311
##ica
tlc
iodine
analogue
conjugation
halogen
##lear
policies
seeds
##olip
##afs
extrapol
iterations
assemblies
bigger
brought
##icated
gfp
reconstructed
filament
dens
connecting
emerging
biog
##ini
kl
scaveng
considers
noteworthy
hair
stands
tertiary
ordinary
tk
practices
113
45°
coars
##gas
treating
alternatives
infras
##itely
vc
permeate
##benzene
obst
##ophores
##dp
upward
uniformity
chir
vb
pick
sar
promoting
005
multiv
tumors
conserved
micr
##violet
ductility
nanocrystalline
automatic
approximations
elongated
ultraviolet
cytok
epith
antigen
##opolymer
moved
eluent
augment
##dna
convert
diagnostic
##r1
depl
pieces
depart
signature
p0
pf6
##lem
indoor
ko
depicts
likel
humans
passes
gy
stic
possibilities
phthal
supercritical
bag
waveguide
coexist
autocl
paras
6h2o
##izable
195
##ulin
provin
decisions
reductions
168
outcomes
yt
minimization
##ariate
roll
igg
##olytic
compartment
##v2
mof
photonic
favored
viscoelastic
allyl
likelihood
attempted
sq
c3n4
microorganisms
promotes
competing
patterned
needle
144
##vance
pdf
envelope
px
##ensitive
opportunity
undoped
viral
obstac
##→∞
lowered
nas
p3ht
lumin
oxidant
hardly
nac
xe
##71
continuity
nitric
surrounded
lifetimes
shielding
programming
progression
plasticity
##pread
mountain
na2so4
progressive
uc
strept
e0
##ethanol
clad
interested
detecting
mwcnt
δs
1e
molybden
6c
summarizes
damaged
##hol
thermodynam
nanostructured
##otential
α2
##att
vig
h4
coag
2m
solely
psi
sink
sectors
automatically
earthquake
##igation
magnification
played
codes
eh
zirconia
##amethyl
anova
bipyr
bifur
heater
automated
continues
couplings
##bu
triggered
egf
##urn
9a
glac
collabor
electrosp
inventory
##grade
relaxed
260
inhomogeneous
observable
counts
notable
bragg
mind
wides
comprises
##eg
##rm
gained
translational
anomalous
tunable
volatil
minimizing
undertaken
serves
ky
270
widespread
rupture
interpl
zsm
constituent
write
dol
restric
##rn
##achi
defines
waf
naphthal
knock
##ker
firm
2f
belt
synergistic
xy
sulphur
depleted
boil
periph
pull
undes
rising
lee
var
coalescence
tilt
protocols
magm
##ogens
sedimentation
##inking
deformations
##vin
vesicles
viewed
probable
175
anhydr
##ulfide
relevance
grows
frames
tumour
fb
freezing
δv
supposed
facets
spacer
dropped
##3n
##etes
extends
cus
prevents
cmc
mechanically
subsurface
mk
rend
##flon
certainly
toc
carcin
clamp
strictly
##tite
drastically
ch3cn
corpor
oxo
templates
cred
ore
bridged
basically
eutectic
##hire
titania
##entz
roots
##wood
today
neuro
1992
##lattice
file
throughput
incorporate
vertex
2k
propagating
requiring
xen
ferm
fan
publ
euler
crosslinking
striking
massi
mm2
cantilever
dependency
##gt
##ruption
##dh
amplified
##graphic
exploited
##illin
variant
teflon
##assed
conveni
fractures
plasmid
citrate
minimized
domestic
jcp
ome
elast
liu
tib
bos
developments
inertia
unclear
suppose
shared
##oplankton
suit
generic
delayed
coke
originating
holding
hop
overe
parabol
destro
##64
dang
durability
etoh
wafers
topic
muc
oral
cascade
supercapac
softening
homogeneity
##stein
##ogel
helps
seeded
france
peripheral
diaz
ups
compatibility
bz
united
quadrupole
fractionation
arab
dropwise
agglomeration
##ml
##alling
biogas
##amino
protonation
guidelines
eluted
##ocyte
vessels
vascular
luc
constitute
evaporator
##ession
2j
ju
latent
www
monthly
xn
##itol
inelastic
exer
unp
grass
vp
##bh
##lin
etch
prototype
shed
##urable
##atures
##bound
##liers
landscape
magnetite
endogenous
lamellar
yang
##cl4
dock
insulation
discretization
eps
##parts
o1
endothelial
older
lorentz
pole
vt
directional
##3o
gelatin
dys
balanced
9h
r3
imperf
##scatter
folding
sirna
149
dup
ecological
##ubstituted
devoted
personal
job
formic
##gers
moduli
##ele
##osomal
pilot
distillation
switched
contaminated
advances
##n1
glacial
cosm
sad
dith
dominates
blocked
claim
highlight
determin
began
monoton
##oxic
##62
uranium
evolved
gsh
electrolysis
tetrahydro
huge
##∂2
destruction
hidden
absorbing
forcing
responsive
byp
##ectin
educ
tracer
mechanistic
##fit
chloroph
cit
cu2o
linkage
falls
##zyme
10−2
##omycin
##bre
photocatalyst
molybdenum
penal
##mium
##ko
gem
limest
hydrophob
piper
##ativ
oligomers
gt
extrusion
tips
butanol
nah
selecting
cys
tric
fore
frequent
coerc
wavelet
preventing
##light
wax
anom
paa
austral
##spr
##iff
##85
connectivity
##hn
stimuli
laws
recombinant
curved
##ois
plain
##usive
coc
reader
counterparts
reproduced
##onation
ohmic
creates
burn
sequencing
syringe
scar
t−
alloying
conjunction
differently
environmentally
143
biomed
##aved
becoming
contaminants
backscatter
economy
##identate
inverted
reacting
distr
inducing
opto
meso
compositional
elucidate
reflectivity
vertically
tubular
##aper
null
##72
grav
realize
shut
sapp
strongest
overexp
clock
focuses
infiltration
mesos
lift
##dd
suited
decoupl
facilitates
cyclization
shield
beds
phil
anomaly
decided
optically
##ime
ribb
evacu
cx
mess
qc
freshly
spent
friendly
##roid
notch
enabling
−4
##erves
galact
gce
adduct
trunc
ease
##che
odd
sp2
fid
aldehydes
subsystem
142
##ologic
dosage
asphalt
format
nucleophilic
ubi
circuits
likewise
security
buoy
fractal
##ghai
progressively
aggregated
thermogravimetric
choosing
naphth
141
repulsive
ignored
##αβ
drainage
bac
##eno
overview
derivation
##52
shifting
stabilizing
##osecond
microfluidic
oxidizing
acute
arsenic
cq
lr
hill
lev
##ho
##eptide
night
##annel
##nn
updated
tangential
cylinders
shanghai
biofilm
##ulos
designated
magnitudes
kf
dirac
d0
elementary
installation
served
liposomes
exceeding
biore
rejection
yi
anomalies
inher
intercept
partitioning
risks
##rec
inactive
apr
##hole
train
imidazole
dun
clarify
##uristic
exploration
##erately
degenerate
climatic
percentages
oh−
schematically
conditioning
conservative
antis
century
incl
li2
person
corresponded
cooh
drivers
##ulture
##leigh
plaus
xj
historical
rail
lesser
anticipated
stacked
hemis
wheat
sustained
##acterial
susceptible
belongs
##ocyclic
hiv
ductile
relies
grey
1991
argument
ut
entering
##kj
video
##aching
upl
chond
corn
runoff
##tious
bud
nons
vortices
chron
isomerization
comparatively
logarithmic
condenser
routine
μa
thermodynamically
afterwards
adsorbate
δx
unload
electrocatalytic
##93
##68
##gd
lou
covers
##ming
decays
##mt
fullerene
pyridyl
kp
confocal
##hood
reads
wed
capped
hydrolog
##np
infected
dissolving
cysteine
y2
##67
coval
warming
lanthanide
harvesting
live
instances
tand
cri
1980
antibacterial
##wall
ptfe
rayleigh
anc
basins
formaldehyde
##rocy
pressed
exponentially
circles
##icro
##ffers
reacts
v0
mich
##∕2
stopped
gets
protect
##omy
##iated
##quinone
downward
eye
##oxygen
phe
mineralization
originated
cem
branched
centres
##udes
division
receiver
gasoline
encapsulation
photochemical
tens
##vial
letter
nanostructure
recycled
frameworks
##itrogen
wound
intermetallic
##ensification
divergence
1k
##vent
inflammation
said
kar
disappeared
sapphire
proportions
ridge
notation
conductivities
##lc
emerged
ceria
schott
##ushing
vf
restriction
##tribution
##ceived
α1
archae
custom
##atoms
##hiph
ventilation
labelled
##thi
##arity
n−1
##wide
1600
##ava
##onical
##otides
##inter
offshore
##itz
robot
dcm
##hal
c7
reproducible
biofu
aerobic
immediate
kid
##aneously
quar
cadmium
passivation
tyros
arrhen
∂t
dominate
july
savings
appearing
##rocal
##gc
##lest
deterministic
δf
abnormal
container
k0
advantageous
weighting
termed
store
tay
##itant
adip
−20
hone
labeling
permits
retro
##enedi
elabor
license
originate
##aniline
page
chronic
preparing
ji
bcc
ck
##oct
qm
reductive
ry
lubric
institution
##itors
tnf
arrhenius
photograph
healing
merg
##bb
adult
sulfuric
graphs
adverse
al3
cytoplas
##ω2
facies
fibrobl
utilize
profit
atlantic
420
sex
##onuclear
kc
prevail
##sivity
##ignific
hitachi
lasers
aniline
infrastructure
methan
perturbations
false
##roll
screw
strengthening
##bes
cel
##gm
sonic
eigenvalue
impregnation
azo
brazil
capacitor
homolog
##exc
shale
influencing
##met
antagon
biosensor
neighbors
m0
attraction
manifold
priv
q1
endothermic
helpful
june
massive
relate
##ynthetic
##u2
famil
luminescent
##awa
##west
albumin
emb
nodal
##ami
dq
guarantee
##mps
ensures
cdte
ctab
sharply
simplest
−12
ionized
movements
och3
approved
categor
phonons
va
bomb
thermoelectric
##sb
1400
separations
##orders
jcpds
you
scin
##ya
curie
versatile
electrophoresis
female
##ignificant
comfort
examining
lem
##ura
greenhouse
resistances
crown
##ading
tandem
occupancy
##acetic
printing
posterior
involvement
nutrients
medicine
org
bf4
pzt
h0
modifying
rarely
divid
##entate
##ral
##layers
##gly
superposition
##ometallic
sonication
pumped
anod
exfol
mature
fitness
applies
passage
collective
magneto
##ectivities
resins
##icrobial
integrals
contrad
##jk
sinus
harvested
rl
ubiqu
astm
bromo
situated
sorbent
filtrate
##ahedron
dealing
##urization
##restrial
##agr
accident
##ications
milled
##inges
clo4
##ancer
prevented
handle
##odi
energetically
##aryl
##pace
blow
behave
branching
unable
macrophages
157
##oll
reciprocal
lps
##ateral
u1
thereafter
solubil
maximize
##olutions
beneath
mutual
sent
diodes
##print
spiked
thiophene
antimicrobial
pile
dut
exceeded
##ensus
isotopes
opportunities
lda
relie
mp2
individually
##izers
##oxides
##ocr
ketone
heavily
revealing
restor
kim
##iazole
eos
bounds
compliance
azim
introduces
cohesive
ws
tent
rely
alginate
nearby
##phen
biomedical
##ulates
amphiph
originates
thinner
assessing
brill
maldi
recur
incons
residential
manufactured
uf
ce3
##ea
insignificant
c10
tpd
rows
##vo
incoming
binds
buffered
154
##rox
accelerating
mbar
##y2
cyclohexane
##ensis
separating
##ellulose
optics
##ald
electroch
8h
langu
mofs
physicochemical
taylor
biotin
analytically
markets
ship
architectures
chromatograph
soon
##aine
##grou
##−k
##uled
entrance
##imers
intes
##oresist
crops
equatorial
reservoirs
retain
cogn
superimp
cured
thz
##hr
##ife
##nes
spinning
##phere
bead
mgso4
t3
moo3
##avail
##erant
rises
##bert
avoiding
escape
micelle
ont
weighed
virtually
matlab
bi2
noneth
nk
##dz
4π
nonetheless
##ser
kore
approaching
looking
corrobor
seconds
10a
##hm
##ethoxy
deconv
diffusive
vl
mold
1r
descript
ing
ast
##orre
formalism
joh
analytic
backward
##azing
##51
scintill
cyp
sant
primer
electrodeposition
cultivation
substance
normalization
pce
##vable
310
##ambigu
dehydrogenation
u2
stro
##rotron
correspondence
##∑k
nitrite
##oked
skeleton
happens
##version
sce
myc
##−p
##oa
schottky
340
customer
##pers
participation
dendritic
printed
derivati
egg
mutants
qs
h⋯
##ham
##arded
piece
gather
z2
som
mur
australia
misc
disappearance
polishing
occupy
oligonucle
facilitated
closest
signs
152
##iw
qp
paid
propanol
##arium
##q2
transfection
β1
wastes
##d1
tape
yag
##key
eddy
l3
milk
exchanged
interconnected
rheological
irresp
##54
parabolic
caco3
compensate
dividing
±1
deby
recall
##eps
shel
conduct
dmp
minute
tyr
ago
##izability
##isa
##acl2
compaction
ω2
antenna
cycload
mand
acad
s7
##ells
simpler
##bits
income
sor
chose
families
transistors
##orientation
park
inconsist
sle
accid
concom
anthrop
hydrophobicity
##erm
extrapolation
adsorbents
occupation
worldwide
∼4
wise
pyrrole
facing
##went
turning
que
bad
viol
##ita
rural
pel
∂2
manipulation
##88
opposed
xc
heuristic
##elets
fission
##dren
oa
lists
zig
manual
optimizing
dotted
unambigu
wake
autoclave
##oking
c16
1j
circumst
march
sucrose
underwent
thermodynamics
matches
dz
plausible
compressor
prescribed
outd
##l1
ku
portions
heteroj
similarities
##ardi
##ket
##erative
debye
##eling
terrestrial
##hard
resolve
wu
deficiency
household
drawing
glycine
esr
##urg
primers
synchrotron
mcf
f0
##lines
##but
children
exclusion
granules
2r
pollutant
driver
330
accommodate
concomitant
293
##inance
##ativity
encoding
380
##extr
##lock
proceeded
vr
satisfying
landf
##imil
##sted
meaningful
dma
1300
absorp
une
crustal
facet
##angian
ov
rating
##ille
consolid
9b
156
sacr
pbe
sear
stepwise
##∂z
950
recirc
propane
thrust
precon
chelating
dispersions
biv
actuator
methodologies
bimetallic
potency
soph
annih
depression
##−s
##assic
canonical
solder
mapped
stake
hosp
participate
δc
mn3
solver
gga
electrically
##77
irrespective
##enty
trp
##hp
159
algae
bulky
semiconducting
rotated
##osilicate
certif
exerc
bend
subt
students
customers
sulphate
analogy
emis
##ulum
##ogels
bj
modest
rotary
casp
lad
540
cotton
lagrangian
syntheses
##oglo
##eq
##rane
pretreated
sho
covariance
tac
##oting
microt
transparency
descrip
delamination
##utable
lacking
pipes
vital
adducts
conceptual
drilling
oscillatory
pestic
11b
limestone
##echnology
ghg
##−r
cytotoxic
isopropyl
prosp
thanks
truncated
regulate
evolutionary
equivalence
straw
##state
##amers
kil
kwh
visualization
mortality
hindered
si3
macrop
activate
expectation
##oned
canada
discontinuous
photocatalysts
##gi
v2o5
microal
department
ageing
analyse
aβ
hub
pka
290
ascorb
correspondingly
termination
cox
fired
##ographical
characterizing
##electroly
voltammograms
hereafter
pam
duplex
existed
oac
disrup
meshes
promp
amplifier
parad
goals
nonc
jur
##lated
##f5
151
withdrawing
##oto
xt
intell
dedicated
c11
angi
scanned
plasmonic
##othi
ik
counterpart
visualized
##ipore
optoelectronic
pvc
##icin
##icip
august
propylene
pinning
mz
meteorological
##asp
##fp
##86
##yth
ia
gains
micron
k3
name
update
##etary
##idinium
von
m−
torsional
places
alkanes
manus
pacific
tec
19f
concentrate
deterioration
electrochemically
separator
##rate
firms
accelerate
##fine
homogenous
##oni
percolation
wett
i−
moderately
153
failures
publications
##wa
##through
##itter
##oral
municip
team
##onomic
##uz
##x3
rotations
holocene
province
prone
triethyl
indexed
##mitt
sputtered
j2
3p
arrangements
lapl
b0
lv
disposal
chalc
sciences
palae
optimisation
pom
##fe2o4
##m1
simulating
##c6
xl
stripping
##olves
relating
disturbances
blo
##ees
nuss
3−
ecc
flank
##adiene
##−12
recrystallized
##ethane
metrics
tow
emulsions
30°
argued
##aned
border
##j2
poison
collect
cooperative
tx
definitions
graphitic
hart
2°
dta
cass
offered
bun
varian
##otal
covalently
##olding
arter
millipore
squared
cl2
##dim
##hf
excitons
gross
sacrific
##rotein
disruption
walled
2500
echo
##inery
screened
hg2
##board
nonlinearity
##cope
jack
i0
rechar
donating
biomark
hourly
carbonates
photoin
oe
pairing
vm
vulner
institutional
##h1
ecm
inequality
programmed
162
pulp
epithelial
##oon
scheduling
∂x
##ama
blast
articles
hip
pyrrol
mimic
532
nanometer
destabil
nusselt
tfa
pend
slit
computationally
specifications
generators
receiving
ddd
tea
##eas
isoprop
equilibration
−10
och2
coincides
##acycl
##ticity
immunos
u0
ek
cities
##anar
workpi
ferric
##anone
sulfon
##isp
bod
fluidized
voltammetric
tpa
detrim
card
piv
methylation
disin
society
rivers
isos
bow
##2o2
opened
arrows
pumps
phenotype
##kyo
lid
cowork
unmod
abc
coolant
chips
##cosθ
replication
trich
##lets
april
verification
##silyl
intake
xk
rabbit
inclined
crater
polyelectroly
paraff
pah
167
powers
performs
arguments
##3−
subduc
finer
foams
##ony
hcp
tokyo
##600
rip
plug
ske
##fm
azide
worst
mad
sophistic
floating
consumers
1st
hyperfine
nj
cube
thous
emitter
isolate
committe
moss
w1
agar
realization
δr
monotonic
lsm
machines
inhibiting
zirconium
dopants
observing
vast
gab
reduct
biased
##wt
phospholip
slides
##phenol
conical
initiator
interacts
herb
transforms
169
shot
tried
pahs
ongoing
american
september
##pos
15n
##cripts
engines
compensated
##ren
trivial
##ativistic
coworkers
blot
appreciable
zw
capping
rmse
##tium
controllers
pct
discrepancies
methacrylate
λ2
irradiance
anhydride
##like
alkyn
conversions
##fi
pipeline
##kh
formulas
spp
gra
##know
symbols
unco
ch3oh
uo2
##tran
sugars
bifurcation
recon
constitutes
cacl2
converge
allocation
##uan
africa
january
010
##o12
j1
fret
pyrene
averages
cin
consensus
lived
##π2
tpp
inversely
##ervation
additions
##lementing
catchment
publication
##urized
aliquots
hybrids
invitrogen
bism
equilibrated
phosphine
slide
soy
membership
nod
nanocl
##otherapy
##lich
##cm−1
hydrochloric
uncon
1989
mecn
conjugates
imping
##orescence
doubly
corporation
halide
##4n
canopy
confer
ein
hundreds
turbines
coincide
biology
tangent
poured
swcnts
##α2
conditional
flames
##ixed
frictional
incremental
##lite
favourable
##ought
qw
##omerates
equivalents
##57
polyc
tracks
##aka
narrower
##qc
biocompatibility
##aria
firing
creative
inflow
bundle
mip
##ogeneously
##ych
unid
relates
##ophenyl
ferrom
er3
##ometers
autoc
swnts
##58
##coo
circumfer
catech
##olite
7c
##acetate
title
melts
initiate
tetramethyl
##tier
imprin
##uous
##furan
pressing
shadow
returns
horm
##balance
nav
disulfide
summation
δn
nv
beij
exemp
transpl
spaced
ree
preceding
attributable
graded
##h8
cuc
unfav
##iled
vertices
experiences
insensitive
epis
##ira
##box
##isper
priori
tmp
magma
##2p
acknow
mesopores
genomic
purs
triplicate
##atio3
##2θ
indirectly
##acies
permitted
photolysis
##×1
sps
manually
##agnetism
hepat
shortest
expert
i1
##crack
monomeric
enthalp
##o1
repetition
##otation
sympt
ketones
chart
##ena
##osine
##ima
##aku
buried
##ora
s8
outst
intermitt
##hydrate
decor
##activated
triangle
discrimination
forecast
n0
##xs
δ13
x3
vacc
whereby
intrusion
breakthrough
subunit
groove
transducer
##ranean
g0
d8
octo
inev
weathering
##osyl
##ymethyl
1°
teos
vice
drawbacks
##irection
fet
substitute
10b
##ese
ero
##assing
##etron
resus
spac
administered
lod
versa
manuscript
##aq
motivated
ink
analogs
regi
pollen
language
##formed
beach
overc
tpr
multivariate
highlights
naphthalene
##no3
hk
outstanding
milli
catal
mediter
et2o
definite
periodicity
β2
##ocyanate
##urea
epitax
occasion
controllable
disappears
deuterium
wettability
##ophy
imaged
disks
hydrostatic
residuals
2nd
a5
180°
capacitive
upw
zi
ferr
mitochondria
enol
boc
##o5
stay
##unctions
lattices
thresholds
pointing
docking
conductor
outdoor
differing
##nf
hemic
##icillin
sz
annular
patches
alt
photogen
geochemical
cab
probabil
31g
pcs
ala
regulations
##opro
##obi
establishing
ingr
carbohydrate
##uded
##gal
forecasting
y1
pyrite
##yi
functionalities
si3n4
nico
##ouin
unmodified
cardiac
acceptance
cladding
auger
carbides
cavitation
rigidity
swcnt
##ented
aquifer
coh
##92
beijing
3e
answer
enfor
augmented
priority
severity
eco
neutrons
registered
silane
cable
superconductivity
tune
##alkyl
detachment
inhibits
feo
engineered
bid
probabilistic
protease
jac
mtt
brack
1f
trough
##−m
calorimetry
delays
pso
perchlor
instrumental
breaks
vegf
##¯1
adher
emphasized
bioactive
resistive
cyclopent
leuk
specification
pocket
##sia
##inson
##zag
##rance
ifn
pda
neighborhood
circulating
∑n
eryth
##yer
##hh
##s1
densification
conditioned
latitude
##94
propagate
coding
480
vanishes
combines
##erving
persistent
workpiece
october
detrimental
dihedral
simplify
exafs
pb2
cret
hsa
##ux
λ1
trail
##yan
coexistence
monotonically
turnover
##ael
italy
correlates
synap
sophisticated
kidney
h5
60°
presenting
##opyran
emphasis
##radi
strained
stimulus
chaotic
reality
melan
signatures
mediterranean
worse
chirality
##ilicity
lun
enters
flue
sp3
##76
dmem
166
##ospheric
sinusoidal
##inning
solutes
14c
welded
mx
olefin
tropical
constructs
intellig
neuronal
flocc
perceived
apoptotic
committee
tightly
##icc
##itated
km2
chap
fluorinated
indole
trigonal
chl
agon
colored
fbs
consumer
##fen
possessing
##sch
thym
##idase
##ower
columnar
coagulation
brillouin
reviews
bismuth
arom
##82
displaced
geothermal
prime
arms
integrate
1t
emergence
eo
##isen
ingred
glove
pdi
researches
resonator
adsor
lean
projec
lakes
##¯2
polydis
dissolve
heme
fluoro
carbonaceous
##emulsion
skeletal
oliv
prehe
discontinuity
counted
colle
skew
crucible
expanding
obli
budget
develops
diabetes
clearance
##asses
peroxid
superficial
plating
incen
##bd
dating
spain
bipolar
##inear
assignments
converter
redund
manufacture
bayes
025
representations
mammalian
scienti
wavenumber
sst
acetylene
strips
chromophore
sake
supplier
conformers
innovation
mri
measurable
hela
manifest
germ
##ellar
psd
penalty
altitude
fw
##yle
##zero
sew
225
decompose
protecting
oligomer
ccsd
crosslinked
##retion
secretion
redistribution
##rc
rim
multim
opin
##amides
severely
chambers
##embr
behaves
positioning
distal
##ico
nabh4
propyl
maxwell
functionals
##p3
acac
inas
thaw
z1
linewidth
hrp
##eman
##utation
honeyc
svm
neighbour
excav
recoveries
bubb
therein
private
electrone
emphasize
nucleic
fto
dls
peculi
adopting
3×
##isi
demonstration
sup
successively
##poles
##inities
probed
auc
sequentially
##t3
inexp
inspired
rus
unreacted
degassed
##vision
ally
transfected
##cycl
##axs
##uclide
discharging
alp
wing
transloc
yb3
unloading
newtonian
tyrosine
constructing
aga
gravit
viz
variational
zigzag
η2
dates
uniqu
##−v
chlorophyll
biologically
##bar
innovative
rigorous
transistor
seemed
accumulate
hematite
##ypt
partners
##tric
notion
plga
##harm
chemisorption
graft
1988
mmp
exclude
zo
periodically
diminished
tz
530
leave
brick
philips
experts
hydrochloride
swed
intercalated
##ua
pigment
ao
octahedra
##≥0
sofc
lighting
contours
5×10
##pecific
placing
anticancer
shaft
##ogly
inclination
2σ
unaff
hypothesized
vn
##holds
##ochromic
##tegr
gelation
bidentate
alkylation
##illus
4e
##oic
magnetron
serial
explosion
##−i
##trid
photoelectro
buoyancy
biodegradable
w2
520
bioch
differentiated
twist
µl
lysine
acrylic
protr
throm
alternate
intrigu
phenanth
relativistic
hindrance
rhomb
gear
pits
subunits
##unctional
##aceae
december
gun
cdna
hardware
freshwater
excluding
##cano
imine
fifth
inertial
motifs
tower
pist
settling
ine
agriculture
##gens
instructions
aircr
##idation
distortions
mea
households
σ2
increments
algebraic
korea
##rene
163
guided
nip
degrade
##e3
##beit
discussions
education
##anular
acceptors
gpc
##ulsi
161
biosynthesis
##otrophic
tell
##functional
illumin
monolithic
cretaceous
##87
##asic
deprotonation
municipal
##bridge
oscillating
ω0
##¯i
pond
##ao
6d
transcriptional
ew
insert
##g1
##atum
commons
agreed
surveys
##aint
oceanic
harv
drinking
kx
ellipso
##km
bilayers
##irectional
rectif
wherein
penetrate
corners
interests
panc
economical
##l4
##aired
thermocouple
photogenerated
unaffected
##v1
discharged
##120
##sulf
ranking
contract
adequately
##ida
disorders
proves
refluxed
louis
##sum
polysaccharides
##d6
##thane
164
eu2
platelets
grew
dict
inexpensive
infin
xylene
presentation
anodes
albeit
melted
##lies
##agi
classic
microporous
##rad
nahco3
alterations
c14
reading
##adays
##ulse
volatility
silyl
##t0
316
##ener
recharge
##outh
so3
lime
##athin
##cting
fractured
##18o
##ospheres
440
ferrocene
choices
dele
regulating
##vm
schedule
interplay
spiral
layout
fitc
b4
falling
lamb
cathodes
cleaved
kbt
wedge
zif
overpotential
student
tgf
p53
blended
implementing
##ohed
ras
calif
pcbm
##i1
nowadays
swnt
1970
##ushed
hospital
sims
radioactive
##rome
211
twinning
##¯0
hydrazine
##vinyl
america
ideally
phyl
optic
##riting
abstraction
valves
##unt
disadvantages
duct
nucleotide
superimposed
linkages
##osh
##iod
remed
meeting
phytoplankton
entanglement
preservation
δk
mercap
lone
capacitors
retail
ultrason
3°
##ifiers
##itory
apex
##ceptions
filaments
fei
nonzero
exciting
ppb
##hg
heterocyclic
##59
##gae
antibiotics
prevention
elisa
kink
collecting
retrieved
connect
poli
bron
##ochrome
winds
fetal
tons
ni3
shaking
summarize
aj
##enic
thinning
sensitized
##quil
##83
entities
∼100
monochromator
logistic
anthropogenic
##ogical
trained
selenium
aquatic
evolve
mine
##ault
eigenv
yttr
irrigation
alle
ethane
sparse
dea
justified
strike
##74
transcript
##actic
feld
##enton
stretched
plotting
gravitational
routin
##ski
trypsin
##kα
rear
slabs
polysaccharide
tilted
worked
californ
implied
rigaku
establishment
interview
##pm
distinctive
multiplied
x∈
ultrathin
symbol
##ori
##w1
twenty
intriguing
qt
freely
trem
lg
##oric
254
##≈0
dk
fruit
##zy
formations
synthesised
##mno3
##tan
gmbh
jsc
smoothly
ebs
f−
1987
watershed
garn
tma
##tian
circumstances
nanob
##ulosic
rolled
##ch2ch2
pls
ambigu
caspase
compromise
syngas
michael
2g
repeatedly
gri
cup
aure
sof
sr2
word
##methyl
##omorph
##late
nanod
magnets
biosensors
lipase
##ophenone
##onge
heterojunction
jn
##ibly
classifier
##×100
submitted
##icyl
##r3
agitation
divalent
nap
##ny
evidently
rhb
##occup
stagn
brightness
anthrac
vill
deploy
bundles
hen
silicone
bg
##−d
##amines
comprise
vitamin
aircraft
inactivation
##environ
execution
##imidazole
pyroly
magnetically
srtio3
cognitive
biomolecules
##cein
iω
simulator
volcano
##ylamine
corp
labels
wur
λmax
##oplastic
nitroph
##tesian
pm2
sole
desal
undesirable
overlapped
refract
cerium
libs
##−y
pyramidal
agglomerates
ven
quench
colloids
##harmonic
pj
diox
platelet
algal
1986
females
lithography
discretized
sandstone
renormal
##iae
triton
12h
accidents
trifluoro
##ola
harmonics
semicirc
cycloaddition
dme
##oxys
signalling
fungal
reporting
ensuring
##emission
##ropylene
incompress
ti3
##ylon
laminated
undergoing
##hc
##holders
##i0
##84
cpe
monoxide
oled
attenuated
organics
##aign
selen
##written
polyg
unw
dispers
y2o3
globally
##spray
respondents
a4
##ensional
micellar
kel
nucleoph
##eterm
valued
superoxide
dependencies
annihilation
##otive
10−7
cytokines
qe
citric
neglecting
union
honeycomb
##rowth
hepar
##eled
sei
guan
gg
rk
##igm
centred
stressed
##ocation
lyso
paired
lemma
tro
mm3
remainder
sccm
##ophag
##λ2
refrigerant
172
4s
nanocluster
cartesian
triphenyl
acquire
discern
spike
batio3
##ota
subtle
sputter
basement
zt
##nc
repeatability
μ2
##veld
##cooh
##vem
##rocytes
disadvantage
cd4
370
gps
ascertain
assemblages
arrival
intention
favors
teller
exempl
inp
##hydroph
##occupied
dav
stone
neck
depended
replicates
segmentation
think
1800
alkyne
unsu
histogram
phosphors
stroke
f3
passiv
exchangers
obtains
finds
subtracting
lsc
try
##luids
chromosome
planned
cited
upreg
##tidine
cpu
topographic
γ2
came
instabilities
nanorod
##ovalent
saed
releasing
##okinetic
dipoles
r→
traditionally
##imal
expense
olivine
subtracted
vent
newton
sewage
ideas
cyano
tb3
presently
2017
impregnated
cj
paraffin
aerodynamic
office
inacc
monodisper
##alan
differentiate
anchor
resembles
strands
polarizability
##ensitic
mpc
supercell
ahead
taf
mitigation
173
restrictions
breakage
california
determinations
destructive
suction
scratch
##tri
κb
##ophosphate
##itron
##∂r
thir
transfers
dap
leds
campaign
speciation
spark
ecosystems
intervention
lock
seasons
extracting
##69
heterostructures
238
magmatic
habitat
##isite
degener
nanofluid
##omon
##−q
scientists
exerted
groo
##c3
suitability
δm
##orously
electrospray
##oil
scf
##bouring
deprot
nmp
formate
pref
hydrolyzed
3s
##omas
365
ua
##brom
cyanide
##diff
neighbouring
fibrous
nether
##me2
turbidity
##so3
xm
couples
adoption
4°
heptane
##79
mq
opens
younger
unoccupied
exercise
##burg
325
taut
injector
−δ
cui
preparations
diol
##neum
systemic
tunn
illuminated
crow
extrapolated
bam
##vier
receive
##ographically
distinction
hazardous
171
sheath
##ohedral
platforms
recirculation
flakes
organs
##oin
##ecs
martensitic
##−4
stems
##bean
aster
brings
push
evaluations
dm−3
isop
##wi
pentane
metabolite
fenton
sought
rewritten
broadened
projections
polypropylene
peat
homogeneously
##e1
μb
sunlight
##entral
corrug
convenience
slices
dpa
11a
##itary
fixation
facts
borate
referring
d4
##zi
denitr
converged
fibroblasts
apatite
differed
##prop
schiff
c13
inductively
dlc
halides
proximal
operates
jc
hypotheses
##arg
##oper
fishing
adjustable
fails
characterisation
happen
##81
##bul
peripher
suppliers
repeating
##pon
hat
smoothing
pq
enthalpies
mgcl2
##mid
##za
placement
switches
akt
amphiphilic
enlarged
encomp
kal
##orable
olefins
##iger
ling
##ruit
##quist
##hl
osmotic
tv
opt
pare
stacks
cave
impair
exploring
dendrimers
keto
duty
doing
##ocyc
perception
shortening
thread
forests
colloid
novem
##eptides
monoch
promotion
accessibility
zeiss
neuron
recognize
shearing
chance
284
aerosols
perturbed
preserve
peroxidase
710
micropores
homogenized
##istocene
##ibria
preced
##zers
landau
photoemission
##nh
vo2
tcp
tended
erg
retrieval
earthquakes
##sd
cages
jets
returned
discarded
sublim
november
##bauer
##analy
##1a
##icking
flavon
bmim
##teen
abundances
intu
flooding
lique
credit
430
amongst
##se2
coercivity
011
##arctic
folded
##genic
c15
taxa
kir
discharges
gum
lca
##quilibrium
proc
modular
vein
pleistocene
arene
##una
netherlands
##d3
##ptive
##4o
µg
mica
riet
c20
mars
defective
cps
niob
hydrogenated
stir
8c
reorgan
mda
generations
##net
nanospheres
santa
δ13c
psych
reversibility
omitted
tomography
hil
possessed
esterification
commission
hexa
smoke
electroneg
piston
c9
interch
interatomic
##iso
illustration
2l
##utor
##embrane
dependences
boiler
agarose
argue
databases
taiw
cartrid
mouth
descriptors
##gery
2x
really
recruit
conformer
viewpoint
##−a
eliminating
bmp
fungi
book
antibiotic
emulsi
2100
##phosphine
consequent
clays
hoc
glutath
##local
biodegradation
##−b
10°
tj
##kbt
subsid
ascorbic
##2a
##anck
exo
subduction
perfluor
aureus
3f
∼20
femt
fringes
##steady
##platin
implants
gulf
nematic
grouped
o2−
##param
exponents
mps
256
##occus
flag
promise
sma
##erson
farad
rhodamine
##itin
enantiomer
slice
facilitating
##iotic
##acin
formally
programme
harvest
mission
##kes
vox
indenter
gent
pnip
nrs
rhodium
##station
dissimil
##ulus
mω
switzer
999
##han
superhydroph
questionna
lump
##odextr
sj
equilibria
scavenging
003
views
dimeric
postulated
cake
gravel
appropriately
deoxy
guidance
specially
recommendations
males
##bo3
dum
##ergic
##plus
cs2
switzerland
s−
blending
##arbonate
radar
##agger
fesem
mcc
scs
district
infections
##ament
referenced
portable
nis
necessity
minority
##×10−4
monos
##particle
immuno
##iratory
descriptions
nz
multilayers
submerg
sperm
outper
laun
touch
marks
212
reven
files
##b3
drought
indian
compressibility
fort
dms
explaining
##onent
##estr
##iller
ccdc
##mol
associations
ω1
stakeholders
cr3
pregn
chelate
petro
terrace
##arine
patterning
wp
cosθ
digested
embedding
default
mex
explosive
jones
unsteady
sure
tooth
##spar
##zh
isopropanol
fx
1985
γ1
pione
observer
reman
##ulator
converting
twisted
reporter
##ono
generalization
orific
dinuclear
xanes
regards
overexpression
breath
sas
460
nanoporous
##bn
##vol
coulombic
dimensionality
asper
hfo2
coils
lane
vision
foreign
μ0
incorrect
relief
##ians
intestinal
restoration
tetrahydrofuran
folds
asia
microalgae
a−1
tract
##ister
coordinating
##achlor
sams
concave
gyp
##uronic
sterile
rietveld
longest
dynamically
sns
transester
metamorphic
supplemental
##uj
oxidase
polyhedr
elucidated
##stones
##imidine
clouds
laplace
xp
sonicated
perfor
cambridge
latex
hydrophilicity
##idyl
assemble
epoxide
transients
##200
writing
batches
2p3
feldspar
gravimetric
bombard
##plate
packaging
285
uncoated
achievable
decoupling
wit
carbox
packet
copy
colonies
agnps
standardized
interfere
##oning
##acene
vigorous
febr
viruses
fas
sag
heparin
barium
restrict
positron
vh
alkenes
assemblage
broadly
glycop
##duced
polymerase
calix
cig
homogenization
##±1
6000
##rock
enterpr
macromolecules
trypt
statement
dominance
sky
t4
colony
##oint
##aton
##uries
##umn
atomistic
provision
symptoms
obstacle
broth
discs
δ2
polyvinyl
depar
##cel
regenerated
grand
superconductors
traction
##−o
scc
pharmacological
strategic
burst
abrasive
−k
logarithm
##bf
spontaneously
##imine
δd
purple
allevi
##uron
optimised
##2s3
gallium
quasip
hydraz
bayesian
375
pave
##×n
##ocytosis
enantioselectivity
d−1
##sibly
##eds
##acrylamide
exploit
##vc
seal
osteobl
cns
coals
mononuclear
##group
triethylamine
##hardness
taiwan
stopping
threat
015
forb
snaps
invasive
1l
##article
2020
cet
##etting
fillers
cytochrome
rw
collectors
terminus
aps
##arboxylic
enantiomers
nhc
1p
pod
nem
##ogeneities
σ1
discl
cheap
uplift
##availability
hν
proposal
##anner
huang
coincidence
quer
photodegrad
searching
springs
4h2o
trifluoromethyl
kaol
gaug
##enever
aliquot
##adequ
1g
plla
primitive
otf
chromophores
actively
##500
displaying
triazole
polyure
inadequ
##h10
##xl
cany
lucifer
mtor
triangles
altering
##oyed
##olor
want
subdi
genus
410
catechol
##3k
p21
##etical
microchannel
whenever
origins
regulator
##anion
fruct
##epo4
phthalocyan
##orrelation
chalcogen
tailored
exploitation
seam
##ularities
exogenous
c6h4
keeps
virgin
aiming
synchronization
##v0
loose
imidazolium
snr
preferable
photosensi
glutathione
sque
knee
x¯
e3
##esters
grant
crushed
merely
delocalized
harb
carbohydrates
rose
##oxo
##ocarbon
furan
centrifugal
lactate
##ovascular
silanol
##oglobin
problematic
cloth
coat
refin
capturing
##∑n
206
12a
##olab
##ipping
epitaxy
##amid
##orill
bk
mfc
inhomogeneity
saxs
lw
##aric
projectile
neglect
delocalization
antit
supersaturation
landfill
##2π
snapsh
desicc
magnetism
##qi
evenly
plut
cracked
graphical
acted
machined
ellips
reuse
alkene
byproduc
stratigraphic
mossbauer
endo
ech
xu
##n−1
k2co3
stranded
470
1−x
migrate
##space
##granular
ethers
hsp
suite
microhardness
##isk
##environment
vanishing
h6
##øn
renal
dodecyl
interfering
dissociated
agency
walking
electrospinning
deletion
hydrological
##faction
proposition
in2o3
##aring
275
destroyed
##yy
##f0
cooperation
##care
incompressible
##enediamine
coumar
harmful
frp
limn
##itt
succ
unfavorable
inference
transesterification
rsd
palm
spiro
##stand
respiratory
compete
outflow
pneum
unambiguously
crystallography
compartments
cris
η1
versions
airflow
embryos
phenomenological
304
303
##fet
pareto
modifier
photoinduced
granite
cen
billion
c6d6
##ret
broadband
approached
deprotonated
c22
##beck
tensors
garnet
meters
hexanes
waveform
##urance
dioxane
giant
##pyridine
dendrimer
tether
##din
merit
jumps
004
ration
carbene
##cooling
##afts
carcinoma
##side
dithi
##hex
gq
##eed
6°
488
montm
organometallic
erup
1984
landsl
sen
conflict
##augh
##uchi
flip
obstacles
physis
permeable
##lexes
fluctuating
ipr
##rocess
235
catalyze
cultural
gypsum
impulse
synd
##cb
degeneracy
probing
gdp
microtub
##×10−3
raise
##w2
stratification
enorm
xylose
maize
bombardment
brøn
lactic
##unov
##3d
emerge
replicate
chlorides
processor
pyrazol
femtosecond
autonom
assessments
accompanying
brønsted
8°
submic
och
dipping
deals
176
microb
##opolymers
preferences
ha−1
february
acs
supercapacitors
bon
confirmation
desc
manufacturers
forth
##rag
##3a
resuspended
encoded
adopts
powdered
photoexc
foils
fluka
tetrahedra
sulfides
177
##ofl
bimodal
quarter
##iazol
derivatization
bioreactor
sieve
jose
tiny
brush
tam
asked
##aki
deuterated
actuators
political
surgery
##ulfate
1α
##nh3
manure
zer
##ococcus
nyquist
hepes
sib
##anoic
alex
isobut
dans
satur
montmorill
steril
racemic
pesticides
mott
##annels
contaminant
artifacts
putative
humic
pros
xs
##elium
multiplying
cortex
##ocs
spur
l−
polyelectrolyte
seeding
tanks
bottle
plans
pancre
demanding
coarsening
intermittent
hierarchy
unbound
chim
##omponent
mab
decorated
−i
activating
##urbed
medicinal
mcp
catalysed
dopamine
−78
warr
ripp
fj
bpa
offs
nonlocal
##enk
2t
periphery
vaporization
profiling
born
penicillin
ih
phosphoric
mobilities
acrylate
eccentr
ρ0
managers
##ystems
finished
##actors
##mw
##roline
##onian
oxalate
photocatalysis
##ogenetic
dominating
shore
comment
antarctic
kaolinite
sket
brun
modulate
##opic
spanning
nim
wf
opa
drives
pigments
##entials
geographical
##eri
##ja
hypert
reproduction
symmetries
c6h5
estimations
δu
222
biaxial
diabetic
##ulant
##icing
subsets
strata
##urnal
lysozyme
export
confining
photodegradation
sprayed
centroid
nanofluids
stirrer
fundament
assistance
plated
##persity
inferior
rom
##yness
superconductor
swir
##oretic
hope
##β2
respiration
carbonization
economically
instrumentation
hamp
influent
got
xenon
lj
epa
mould
aptamer
school
preparative
##lements
##oli
closing
##ωt
g3
fk
inserting
biphenyl
iq
monso
##co0
##itis
allylic
maintains
advection
dsscs
linearized
polyt
claimed
jem
xx
grazing
mmt
mcs
predictor
##coal
perchlorate
##thiophene
∂u
αi
constituted
exposures
cec
iridium
##rogenic
electrospun
summarised
capsule
tabulated
δ18o
saddle
##kelet
##fn
lignoc
textile
ie
##ala
dmc
sx
shg
##oxia
curc
##omet
trichlor
##vae
pma
alkane
##123
speaking
##4a
evacuated
##the
burner
1050
evolving
pharmacokinetic
##factor
mirna
σ0
pine
laminate
ensured
stratified
stabilities
game
s9
jth
capsules
silk
##esh
##umen
ruo2
inherently
phenols
mentioning
tween
anharmonic
pseudop
v3
##weight
employs
hx
hipp
terrain
preval
flasks
exterior
##nam
organizations
alanine
cyclodextr
##γ2
sublattice
##esth
##uki
makers
enclosed
butyr
nonm
heavier
##tg
10−8
locus
austen
singularity
entrain
photoan
dew
dryness
aware
profound
exert
cryogenic
freund
locate
mnps
##oule
185
##si2
dj
oxygenated
##ophenol
nanometers
hypothetical
condensate
la0
##areness
polynomials
deviate
##particles
valle
cartil
aberr
clu
hyperb
thermocouples
succession
##ostr
jsm
poisoning
pose
margins
aeration
dcs
ribbon
drif
lamellae
wm
microemulsion
tafel
deployment
##silane
subscript
dissipated
xr
mobil
##waters
pictures
estuary
##−e
oer
obe
latest
oblique
glucos
scarce
hms
ix
ferrous
##phthal
##etermined
##oke
calorimeter
lose
addressing
injections
tagged
argin
affinities
grooves
hur
z0
hw
p25
##apes
automotive
##ville
archaeological
##ilon
nerve
durations
5e
##ematically
##dl
reasoning
##dv
csf
δi
##α1
fabricating
progen
strengthened
inconsistent
sorting
psa
##imolar
motivation
wrink
hamm
##pps
textures
outward
flatten
##oclase
housing
adults
dialysis
##cm2
simplification
qubit
##entic
##aro
pectin
manage
hepatic
flower
stimulate
zwitter
slot
2δ
29si
dolom
##ω0
dangling
##h2po4
colors
determinant
executed
aco
ips
absorptions
blades
##block
c2h4
distinctly
oleic
##benzyl
plagi
surrog
##q1
twins
unpa
shortc
poles
##ript
bipyridine
muscles
caro
smith
wurtz
1010
sep
eru
##omics
leuc
##yd
regularly
wo
thank
##therm
isch
##×2
##obacteria
tbu
faraday
##efined
clarified
##me3
critically
costly
##89
refractory
squee
chp
fate
borehole
ppv
##oxysilane
leu
succeed
##oresistance
clamped
##∂u
maf
##tra
photographs
znse
superlattice
worm
galvanostatic
##du
textural
##iloxane
mixer
statistic
kinetically
african
##trim
indexes
##opath
##uthal
3n
translocation
crash
han
273
populated
unequ
photodet
subtraction
jas
forbidden
##apsules
##raft
nois
##kary
moc
bicarbonate
4i
##olymer
π2
##cg
hosts
behaviours
achieves
anchoring
##ogl
ready
##c0
lorentzian
refrigeration
submerged
cytoplasm
##errer
recycle
elliptical
biofuel
licens
##centr
colourless
nich
estimator
##irus
colorimetric
azimuthal
fft
incorporates
interd
##400
entit
asympto
##bing
prohib
##ocardi
##une
readout
monochromatic
7°
micrometer
560
capill
libraries
inoculated
##r0
rhy
dab
##k−1
q0
distant
seques
sandy
##xn
recruitment
autophag
proposes
##kb
multifunctional
rhombohedral
soybean
interferences
weakened
boh
transplant
arbitrarily
engineers
##ups
fulfilled
evolves
##k0
microcrack
##db
depositing
mma
normalised
limb
imprinted
1700
μc
ultrap
lambda
##no4
ch2o
flange
atcc
loos
lipop
selectivities
misfit
labile
##gel
isolates
cvs
174
montmorillonite
##∂x2
##alities
vesicle
vorticity
##ype
##σ2
570
ba2
##−∞
markov
nos
hcc
retaining
download
converges
synchronous
ridges
paradigm
heterocyc
2i
lan
##lp
fluvial
reus
nond
trivalent
##ogy
##trated
acn
purged
y0
##pert
dated
##atid
lands
cortical
brownian
agno3
larvae
cip
wurtzite
##lattices
lyophil
sweden
##utyl
nanoclusters
231
visually
impaired
anchored
dichro
bw
m˙
restored
preserving
##ontroll
nylon
desorbed
imidazol
resc
csp
mn4
hybridized
acknowled
##ondo
##s4
flotation
##functions
orifice
tour
##kf
4−
##sr0
intensi
na2co3
##zes
##∈r
raising
##otes
salicyl
##idic
##apunov
390
dextran
navier
unpaired
ses
electrophilic
entered
depositional
footprint
##obs
preclu
nag
rij
ebsd
cord
##related
204
prevalence
collaboration
electrodepos
eruption
opinion
gathered
cancers
abilities
cisplatin
underestimated
transgenic
##with
collim
exploiting
sidewall
chromatograms
20°
##umes
##my
gst
luciferase
titanate
cr2o3
diis
##−α
gast
poros
##2o8
1∞
##bi3
295
0≤
formulae
substitutions
##idone
tos
x→
utilizes
intensively
scherrer
##μν
infinity
mats
510
##aded
infil
heterostructure
lesions
mwnts
potentiostat
δa
sulfonic
squid
rated
fabrics
512
2×10
accelerator
ene
extruded
oligos
##oven
electroactive
##n0
assayed
fecl3
maturity
##points
miocene
hartree
disag
benzaldehyde
polyaniline
##kle
fringe
alfa
incompati
##2o6
tremend
epid
cnf
settlement
##transfer
lifepo4
vin
cytometry
μm2
cooler
terraces
enantioselective
buffers
analysing
ultrafast
##ipl
fibrils
dan
aromatics
##high
haem
uhv
τ1
pms
diagnostics
clarity
arcs
2400
xanth
logical
##tina
refraction
reinforcing
sif
##mr
specify
h3po4
triti
##phosphate
photosynthetic
cars
antiv
##eastern
lyapunov
##obor
fv
cartilage
θ1
lysis
necro
backscattering
##asted
linkers
cycled
−6
serine
socio
##eli
spind
rj
lowers
basicity
##actone
##cy
getting
rounded
deduce
antitum
##agraph
multiplex
δδ
biomarkers
∼50
##mim
tails
##cooled
microarr
deconvolution
fus
persistence
1β
mao
fibrin
cardiovascular
##800
##opo
clones
supercapacitor
##roportion
stron
gates
geographic
autocorrelation
##gestion
fock
##lass
bottles
contemp
answ
noticeably
balancing
sox
012
cms
supplies
crystallizes
##assemb
frustr
johns
##tf
superhe
ribbons
vanish
dimerization
histories
steadily
ruled
bell
expectations
conductors
pid
5h2o
cultivated
sigm
anterior
##vian
egfr
##aco
liquor
##onates
##enesulf
##titudes
avalan
germanium
paint
##osure
doi
chitin
##ologr
microbi
allu
hemisphere
maturation
ferri
sided
coin
##ander
mixes
charcoal
##q3
depolar
discriminate
##hydrox
##ppler
malign
##iously
##atz
diamine
##enetic
##metic
multiplication
axisymmetric
balls
##kr
peb
##ado
leachate
estu
nicolet
resemble
207
n4
gj
s11
prostate
##eras
spraying
tellur
tack
envis
quadrature
##1000
trench
diffused
intim
wl
##pn
mbe
peculiar
meg
##ophan
deline
l0
##atever
underground
query
whatever
volatiles
disperse
porphyrins
cementi
##tress
##amycin
valleys
tas
ultrapure
nanofiber
danger
##erometric
coa
580
##ete
carbonation
assembling
amber
rv
awareness
dish
##h7
mathrm
sponge
frontier
##h12
nov
##ynyl
ply
ballistic
documents
investments
circumferential
nanocrystal
1×10
monoclonal
handled
amides
transduction
yu
vii
allele
pillar
internet
mitigate
mts
independence
##icities
interrup
##acetyl
einstein
wn
activator
invasion
seebeck
gauss
gbs
prere
hologr
timescale
mscs
##agnet
##aline
fluorophore
##iable
ub
pathogens
swarm
dehydrated
portland
freundlich
apical
gar
rejected
pairwise
gev
##tide
adatoms
##otion
sensitivities
strontium
fh
evidences
##atal
##mev
##via
1983
dihydroxy
textured
205
biotechnology
u¯
exfoliation
trust
minus
visualize
enormous
##lb
##assay
490
inadequate
##rost
##imm
xas
dione
gad
##ensurate
nonequilibrium
transmembrane
vdw
polarisation
##md
crossed
hemat
gut
northeast
zha
arrive
rew
msc
profession
δε
hun
##bard
plagioclase
##apatite
diatom
inco
sorted
prevailing
readings
pedestr
helm
##rous
albed
adam
gis
msw
sensory
##ards
remn
##pan
polydispersity
transferring
dehydrogenase
doppler
polycarb
sensible
stagger
sales
##isations
subspace
660
corona
quantifying
yn
debate
##umb
biases
photodi
c17
f12
avoids
ubiquit
oxidize
reliably
##ails
ingredients
##ugin
discontinuities
fox
lined
propagated
monsoon
##vised
spill
metath
##ropyr
188
tide
emergency
violet
cytokine
topics
declined
nanosized
informed
##arri
parasitic
##holes
##⩾0
193
##onics
photophysical
sorbents
phi
nadh
pear
satellites
hong
progn
perovskites
1960
updating
mathematically
##lymp
dissociative
dibrom
sta
##inator
reorganization
functioning
civ
gait
radion
caten
sess
cuv
##borne
##bil
upgrad
fructose
##3p
##graphy
tubing
1250
vocs
333
ces
densely
##formamide
bentonite
anthracene
##ethiol
bioavailability
bv
clustered
##icially
##odium
suz
vegetable
equimolar
oligonucleotides
manifested
incon
microgr
solvothermal
classify
arginine
metallurg
desalination
favoured
##ixing
##uing
frontal
5f
paragraph
##pes
##−z
prevalent
1982
w0
ssa
parity
##bach
passeng
##ffff
ipa
∼6
bromine
proxy
##akis
tnt
northwest
##b0
click
ptc
io
diamagnetic
suffers
deprotection
pertain
thousands
sterically
microparticles
dilat
premixed
request
excitonic
koe
multicomponent
glacier
##−10
##pherical
claims
kondo
##western
speculate
vibronic
fle
abrasion
chal
viscosities
##case
coded
##omorphic
lastly
monodisperse
pde
routinely
explanations
##issible
emitters
adds
cellul
cd2cl2
denitrification
powered
pts
dome
tau
178
lighter
subsection
subjective
organism
∫ω
entrainment
##gaas
288
emissivity
aldol
raises
sealing
stereochemistry
##ucl4
##u0
stark
lx
##ck
guess
implicated
halo
##sinθ
neut
epi
coral
olymp
3h2o
prerequ
transporting
##ycles
lav
streptomycin
electrophoretic
cuts
uj
##mn0
associate
farmers
energetics
pitting
##a3
##eland
##ostasis
geometrically
##ris
joining
sandwiched
soaking
generality
solvated
usefulness
−80
disproportion
crystallize
##omonas
##tinent
##s−1
##analysis
photom
##≤0
categorized
incin
weakening
gently
polymorphs
finish
dissipative
hemicellulose
bcl
propagates
##indent
∼30
##ago
11c
polyurethane
##sio2
ted
xylan
deeply
tds
singly
18o
aggressive
18f
coron
temporary
vas
legis
##β1
##emed
biofuels
##oping
proline
##ibb
spacings
##nr
ran
knowing
chemotherapy
minimizes
bleaching
flaw
##recip
enantiomeric
emerges
##states
wetland
laterally
mediator
hed
τ2
stripe
surg
parametr
guaranteed
denaturation
##×10−5
ldl
colleag
fertilizer
pier
bq
##no2
1i
##angle
revised
##itization
##idines
concurrent
##te3
##emann
piez
nay
noisy
extrinsic
δσ
accomplish
ok
ε0
helices
polyester
copolymerization
##−f
##ohyd
pld
duplicate
soi
nonpolar
##lycer
##ashes
soaked
θi
202
hydrates
ye
##ressing
balances
##ethoxysilane
polypyr
bubbling
tcn
synthesizing
magnetoresistance
biochar
jobs
photosensiti
373
##tiles
##u1
##ropic
judg
sham
##a0
cα
burden
##oo
##−l
phb
conveniently
aerogel
dietary
lenses
managed
7d
∼7
##anyl
biomaterials
fidel
arid
binders
stom
overlying
mason
##anesulf
pseudoc
detached
coincident
i3
208
electrochemistry
yttrium
gns
m4
vanad
convolution
##ontally
##−μ
##opt
academic
veins
glutamate
##parallel
polymerized
−x
tat
∑m
metathesis
hts
ti4
licl
empirically
tet
fulfill
impacted
##erite
nonun
##ijk
unwanted
settle
occasionally
analyser
inefficient
sublimation
functionally
photore
overt
epider
webs
continuing
phosphates
oes
##chl
horizontally
lives
southeast
##vie
adh
denat
vw
##insically
nts
convergent
##ga0
routing
##ollen
catalytically
vials
captures
silt
sieves
reserve
handed
##jug
hpa
occupies
773
##quinoline
##pectives
centrifuge
prismatic
##iler
473
kur
approx
upwelling
cd3od
myel
marrow
wavenumbers
mirrors
λi
##elve
reorientation
ℏω
neutralization
ttf
transducers
uneven
12c
##ε0
mirnas
tant
accretion
qn
3500
histidine
##uistic
355
hazards
##ichia
olive
exposing
perspectives
nch
consolidation
##ager
cmos
externally
truncation
monoc
moles
pressurized
spm
releases
extraord
ja
drill
polyimide
nx
##rep
weib
bern
schro
johnson
##qs
overestimated
transit
rct
s10
owners
tie
crypt
infra
rif
##vt
waveguides
interparticle
ferromagnetism
lagrange
##aks
620
bi2o3
biref
semicircle
interphase
ez
##reduc
birefring
silicates
caution
actuation
##nps
tryptophan
reflector
doublets
combust
homologous
##iser
arctic
modis
difluor
alkynes
pooled
sige
separates
refluxing
unidirectional
interc
hif
hydroper
##bium
mutually
bitumen
suzuki
schmid
epoxidation
215
fixing
##ocamp
eluting
abbre
constantly
g4
unpre
mpp
pendant
bark
nlo
damages
lubricant
##oluted
canyon
chick
me2
stabilizes
alkoxy
twelve
tritium
##asse
liv
μ3
outline
micropore
metamorph
combin
gon
impeller
producers
cytoplasmic
rbs
##×10−6
##js
myr
τ0
miniat
2μ
disaster
ωt
##oul
##∂θ
effluents
abbrevi
f4
##itons
dog
reflective
intrinsically
repetitive
pcb
diurnal
##ergetic
impose
##j1
bones
exceptional
intelligent
intergranular
surge
xrf
v−1
lava
##growth
pharmaceuticals
machinery
learn
wb
contacting
conflu
curcumin
chemil
##ran
vibrating
rinsing
helped
pdt
−e
doubled
##olecule
aunp
deriving
lithiation
scission
arte
δl
rift
southwest
sulfoxide
encouraging
lanthanum
aas
tetrab
baff
unified
wal
macrocycle
colleagues
clinically
jiang
emu
unn
ancient
resolutions
1981
questionnaire
tal
##crystals
complications
aud
pathogen
disintegr
crystallisation
weiss
albedo
discusses
carboxy
720
fen
genotype
asymptotically
message
contrasts
##isd
spindle
propensity
stocks
butane
benthic
characterizes
##adt
sial
roch
trimer
192
kth
5s
traveling
corrosive
ocp
##icon
schw
tcr
673
lai
glow
##fe2
##otentials
nucleate
semantic
ε2
ud
murine
hmf
##oz
na2o
plasmas
bipy
behavioral
octane
cir
vertebr
bra
##fig
thiourea
chromatogram
hydroxides
redundant
equality
dichloro
spme
characterizations
##dinger
mfi
scintillation
hyperbolic
ptr
##adian
api
onc
##planar
render
voltammogram
partner
participating
##300
certified
fidelity
3rd
232
denser
surroundings
austenitic
oscillators
hexadec
nik
±2
mno
benzoyl
rotate
participant
shedding
crushing
plastics
mother
δ1
session
seek
biocompatible
uranyl
σi
compacted
##erating
##ende
concentric
##atalytic
orbits
fried
stick
405
##gene
snps
##polymer
##ett
quark
gv
##−ω
developmental
dwell
##nan
pentacene
##lo4
dimethylformamide
980
martin
niobium
cure
transforming
qr
##win
1990s
bx
atmospheres
cfu
##lates
icos
supersc
##ean
pxrd
##oflu
apo
embryonic
##bro
ωi
##requ
spir
gir
cfrp
teeth
workstation
##uate
divide
dors
subband
univer
573
313
bifunctional
loci
##liest
##fully
##ushes
##penetr
remod
##ch2o
literatures
##iro
cruz
pdb
causal
##aya
grades
operative
utilities
hexafluor
transitional
##lam
##imidazolium
substitutional
##ional
microenvironment
630
bits
qcm
##h9
linguistic
##men
punch
sleep
hyg
olympus
##6o
flocculation
furf
##iao
ranked
##port
θ2
bess
staggered
##uric
fasc
rendering
adenine
##hel
burial
fmoc
characters
nitros
contempor
##vern
cpt
antitumor
pyrro
tian
##uning
##aromatic
mountains
willi
uniquely
lignocell
t−1
nex
nin
ssc
##oo2
partitioned
arrest
outliers
weibull
##cine
##rine
refining
mutagen
collectively
remin
3m
##iba
retr
regulates
converts
decoupled
la2o3
thermos
locked
mesoph
j0
##plastic
oligonucleotide
sort
surrogate
conce
offering
chromatin
##onin
spar
##ecess
famili
gyr
mse
csa
anoxic
suppressing
d5
stamp
pathological
desulf
nmol
fum
shaker
doubling
cuii
rx
electrolytic
knockdown
carries
physico
earliest
aesar
resting
exclusive
##−σ
201
neutroph
amphib
y3
diffusing
extensional
composting
##eted
po2
phosphorylated
##δx
##onia
clone
anderson
humidified
##itized
suppresses
unpreced
##book
hypoxia
smoother
trading
scarc
authentic
turbid
##neath
affording
magnetometer
underneath
##tible
##ache
bat
subsystems
scn
kap
tba
bfo
chemisorbed
ladder
roads
hippocamp
adatom
twofold
nch2
uncover
shaken
weakness
tentatively
8000
containers
##hd
cu3
amyloid
gdl
weighing
removes
unfolding
yv
##ysics
collisional
9°
pastes
##holtz
##ffs
decide
tari
unprecedented
interpenetr
oxidised
dendrite
fluorescein
##eles
directing
discipl
dendrites
##osides
laminates
czts
turkey
##pic
brook
kinematics
sulfonate
secret
eigenvectors
oxford
##terozoic
dow
reconstructions
##ng
sple
##p0
cohesion
##versi
##lity
wrapped
nth
nih
oxazol
pm10
translated
lep
acetaldehyde
benzoic
μ1
2α
o4
##imilation
phosphatase
polymerisation
solidified
orientational
##itably
employment
server
tremendous
tillage
reused
spun
monop
lipophilic
continuation
sands
##ohydride
capillaries
ag2
slug
hes
histograms
##lus
planck
1979
retains
##lm
isob
lec
fic
tort
##trained
##osin
incoherent
##zyg
hubbard
10−9
identifies
bloch
organizational
##acity
lactone
ect
biogenic
macrocyclic
penins
promoters
gender
leed
satisfaction
trimethylsilyl
cd8
acidified
healthcare
reconstruct
precondition
##cl6
antif
factory
514
mcn
loess
needles
nanoindent
producer
##energy
pillars
surgical
234
coverages
departure
raft
visit
manipulated
##enchym
packages
tuber
faul
zhao
imperfections
truly
farms
escher
antiviral
##y1
assimilation
undesired
##fin
##arian
decel
contex
eliminates
king
15°
controversi
swollen
t∈
helmholtz
##fly
##aga
cmp
maximizing
mediate
δz
##fd
##ciences
##m0
asian
ybco
lbl
−30
electrocatalysts
areal
ban
##gest
##ondens
hq
12b
425
entity
1980s
caff
manager
ccr
nd3
fischer
dsm
inoculum
affili
liquefaction
nose
recalc
excimer
gastric
c2h2
idealized
##acs
##alt
wrong
##br2
openings
sro
##ipy
appli
ams
narrowing
k4
goat
declare
##×0
##ulti
bivo4
ubiquitous
lubrication
##sio4
hormone
tantal
style
##allo
spline
ccc
##orters
wol
utilised
bab
kan
##ube
autumn
goods
compiled
pyrimidine
optimizations
ports
triggering
##arin
injuries
##arson
refinements
182
tss
dtt
oligo
vk
checking
synaptic
strom
##enone
unders
hardened
##uish
pyruv
entangled
inevitably
multiplier
habitats
meant
contexts
fz
diversi
superhydrophobic
gang
exfoliated
−11
denom
nife
hexyl
escherichia
edc
pulver
reserves
azimuth
nh4cl
##agic
wool
##se3
piecew
xb
inverter
184
bedrock
survive
tall
thiols
rhiz
##uclidean
##ighter
mexico
##enoid
γ0
fins
##drug
england
dimethoxy
salmon
addresses
extensions
##avidin
interactive
baf
osl
∼15
worn
##roteins
immisc
save
euclidean
δω
appe
merged
vx
finely
boxes
piecewise
antig
006
injecting
hydrolytic
##kg
##phasic
heats
australian
entrapped
χ2
disagre
aus
conventionally
gentle
##∂xj
0∞
hang
##orespon
inductive
presumed
hdpe
oleds
deviates
##uclides
segmented
speculated
zs
vick
perimeter
lix
xˆ
stripes
equivalently
##≈1
σy
cpc
complexed
counc
stear
phenylene
adsorbates
##veness
640
nb2o5
evacuation
pir
spikes
##robe
traced
c6f5
mbr
6f
##iferous
pemfc
gauges
cyclodextrin
localised
##μb
##λ1
dimp
r4
polaron
rho
5d0
precess
horn
ather
counterions
slender
centros
##oxin
multiphase
investigators
9c
##istinguish
1640
foramin
−15
specialized
pink
revenue
##orily
vag
arth
diminishes
journal
323
##atched
cupr
tester
macromolecular
photosynthesis
planetary
##ias
ours
hydrolys
arith
nes
licoo2
##αi
##esity
admix
zeeman
##rian
tolerant
dyn
puls
oxygens
definitely
hydrides
deployed
jasco
quinone
quinoline
electrodeposited
##centration
pbo
iec
##dω
misorientation
resolving
##vf
##apo
ws2
chapter
damped
780
##itone
winding
coarser
disturbed
670
marsh
indications
intraven
δq
pcp
imbalance
hco3
##lastic
hus
perv
endow
interpretations
##icates
blind
##eh
myocardi
tial
fullerenes
affords
226
feii
##2sin
ubiquitin
expansions
##aam
traits
satisfactorily
187
leached
c24
alkaloids
supernatants
aerugin
beaker
aerogels
xer
staff
reef
thermostat
nonuniform
##chen
insulated
##fe0
##ostic
ecs
mafic
##ubicin
enhancements
##orosity
248
##power
seriously
nanosecond
fronts
overlaps
iodo
protrusion
thermost
empl
autonomous
##atidyl
institutions
##ipient
eels
c1s
jp
hydroxyapatite
##h14
fermions
deck
jacob
−t
ising
trin
##urational
##rex
fermion
##∈n
wine
##ettes
lever
245
snp
adhered
625
antisymmetric
looks
v4
downreg
oxidants
secreted
##orr
cloned
dω
deemed
nist
latitudes
pricing
c21
##2b
hir
286
diaph
poorer
histone
##align
nutrition
copies
joseph
dupl
naked
oxalic
hypers
radioactivity
waiting
nanoribb
portfol
beamline
##imetic
topologies
tilting
η5
cnfs
galactose
##otypic
kapp
scene
sav
255
dcp
benign
gd3
##phasing
##h11
tribological
##bec
reproduces
fires
hull
bst
##balanced
vigorously
##alanine
premature
1150
paleo
horizons
##esy
triglycer
qa
jm
10h
kol
c19
vulnerability
##utter
vulnerable
spurious
doubt
pearson
ddt
boson
prerequisite
ended
##oub
##tition
##−ρ
0⩽
integrin
polarizations
bottlen
c2h5
nq
kelvin
cytoskelet
aeruginosa
mems
combinatorial
interpolated
liposome
octadec
aur
dysfunction
forecasts
cof
##heimer
masonry
homeostasis
##ofuran
scrap
pdo
differentially
##owski
##umann
basalt
##ubes
cnc
glide
fracturing
swing
wetlands
308
crosses
dns
synthase
dolomite
coher
fts
slo
shares
##phos
fgf
##−ε
regio
##ito
183
phenanthroline
anodization
##w0
clath
−c
neutralized
ultrahigh
ppar
syndrome
##anal
poses
granul
##ilson
metastasis
214
subgr
paw
yam
##issoci
##lenk
dispersing
destin
nucleotides
##monary
##hpo4
scanner
nhs
acidification
cary
los
##z1
incentives
versatility
felt
resistor
hrs
##bac
trape
s12
peaked
agonist
trac
ontology
schrodinger
marginally
315
gli
ost
shortened
expend
##ionine
##aux
regularization
##isher
a549
4v
occupying
als
party
##ochlor
infinitely
bcp
mortars
13a
cohort
coumarin
ets
cooking
flamm
prompted
modulating
elliptic
adp
transcripts
##opharm
ultrafine
##inium
decomposes
ensemb
δρ
drum
litter
octyl
nontr
disubstituted
schlenk
pcc
ligation
##opsis
lignocellulosic
emg
∂v
iran
pscs
diene
186
##br3
subsidence
nonradi
stern
##anethiol
implication
sine
indistinguish
tps
attitude
nial
1012
fastest
predetermined
thios
glutamine
glutar
cbm
vj
geo
corroborated
##orad
infusion
##idae
coaxial
##psilon
compost
thermochemical
antioxidants
fisheries
overestimation
riser
##arepsilon
3×10
arabin
##ensing
whit
ryd
##ellation
kz
kinases
impinging
propene
##ingly
monodentate
clockwise
##atalysts
##γ1
anesth
renders
degrading
enclosure
cru
intuitive
stagnation
superstructure
funnel
rgd
tis
gol
imide
##rophy
uncons
tetrahedron
breakup
q˙
jurassic
insulators
merging
initiating
680
##carbonyl
exceptions
breathing
carbazole
leica
##±2
diket
xa
alloyed
ρs
fel
eqe
arithmetic
##imed
visibility
yj
10−10
fingerprint
##heim
##o7
autophagy
t−t
ath
heads
productive
##2cu
drilled
zhou
203
wat
classifiers
q3
jt
4g
octahedron
jω
interven
psf
joined
crisis
hcn
stays
me3
trapez
##enza
##apies
coercive
##inally
council
sulphide
nerv
bile
electronically
dssc
autos
cartridge
street
##≤1
##pu
sis
featuring
suggestion
pertinent
oph
propos
blockage
##dies
warp
formulate
##oreg
debonding
pr3
##ako
jk
ssdna
−7
cdc
angiogenesis
fortun
civil
imperfect
brass
calculates
actors
nitrates
contradict
agglomerate
##orubicin
−d
regulators
methylated
##uminous
keratin
##pf
renormalization
modifies
prompt
##oreduc
×10
amperometric
passivated
segregated
##romic
##∫0∞
chair
phospholipid
##nx
macrophage
dichroism
lacks
##orrelated
b2o3
##fish
##ez
excavation
advancing
dissimilar
chondr
fcs
chlorinated
revolution
asymmetrical
stringent
implicitly
##acil
highlighting
microelectro
imposing
motors
perox
##olv
241
unim
triassic
elaborated
designers
refrigerator
nadph
##adaic
zhu
concre
##arboxylate
##jiang
join
flor
penetrating
tetrafluor
nontriv
lspr
transplantation
williams
flake
cubes
allocated
compl
proparg
chord
pavement
##zt
##tral
bmi
sacrificial
distinguishing
allowable
retarded
resonators
nanosheet
grounded
remediation
laccase
upcon
serving
predefined
ε1
phs
soliton
##illar
legal
shaping
cerevis
rheology
##ensable
mangan
dar
##tage
harsh
pinned
312
lumped
opaque
capita
intersections
granule
feiii
##ophilicity
nitrile
fell
antiparallel
tetrachlor
nbo
keith
downfield
vickers
γi
lasing
wish
retardation
shortly
##kk
##endor
1016
denoting
aij
stabilizer
##cales
##antom
thickening
pools
hig
obl
flavonoids
phthalocyanine
rydberg
##nai
gastro
##jo
parameterization
retic
##neiss
attacks
multilayered
stars
zwitterionic
disrupted
withdrawn
peninsula
trailing
summing
expendit
potentiometric
inapp
pnipam
uncontroll
h⋯o
siox
principally
decaying
multiplicity
pbi
asth
eigenstates
εr
dosing
020
inability
##diffusion
##×4
illustrating
reductase
##∼0
##fj
##outs
##unte
spss
superparam
biggest
dism
spleen
##aggreg
ho2
##gh2
annex
−13
darc
ag3
##mpa
wireless
sit
triaxial
reversibly
##acetylene
organo
goeth
lng
##opus
cerevisiae
undergone
dac
dsp
##opyridine
hay
##∂v
internally
sbr
p2o5
quasiparticle
179
burned
##nal
petri
##och3
##ivities
eukary
amen
plasmids
volunte
1−α
photoelectrochemical
incubator
aisi
quoted
ict
birth
nervous
##θ2
polyacrylamide
##mf
unitary
dof
dtg
liner
tags
microcapsules
##olded
##entional
##chi
λ0
hydrodynamics
restrain
decarboxyl
eulerian
invariance
recru
##nl
rocking
nontrivial
microarray
fores
−14
##olithic
trending
dental
craters
omega
##wald
##δ2
##isomer
tracing
pyrazole
underestimation
smoothed
dephasing
pmt
ptx
lightweight
foraminif
inevitable
microcrystalline
deficit
δλ
distinguishable
axially
faced
##rometer
accelerates
piperidine
##ypes
lidar
5g
exchanges
biotite
pockets
##−γ
chromosomes
δμ
##igan
4j
ods
##uy
mist
##imeters
1∕
spacers
abruptly
sequestration
bog
malt
mari
−8
tablets
##olian
naive
familiar
6al
cf2
##cha
fuc
niti
hepg2
juven
gox
1038
slm
dialy
electronegativity
cbs
antagonist
1350
cheng
unpub
epil
pulmonary
##ξ2
##ometal
encounter
ucn
plateaus
##dimethyl
##idi
##alin
influential
catast
br−
variances
cameras
viewing
sticking
ministry
isoforms
artificially
3g
theta
##˜i
aib
2ω
wnt
inward
alluvial
wgs
interferometer
photodiode
guarantees
1020
760
pour
tcs
happened
l4
##isenberg
##iversity
streptavidin
θ0
obesity
disinf
trying
blanket
hbs
fundamentally
posed
mesopore
sandstones
610
avalanche
sbf
nbs
envision
surplus
##deg
multiplet
1σ
mesoscopic
triggers
magic
525
##acyl
hits
6e
1978
bh4
##atism
##h16
guanine
bcs
tq
calls
og
rationalized
centerline
serpen
transc
subscripts
##bank
##osp
birefringence
##electricity
suffered
##−τ
##x0
isomeric
esp
bioactivity
unknowns
##benzo
φ1
houses
picosecond
tricl
combustor
##boronic
inos
loosely
indistinguishable
spre
ingan
luminance
receives
heisenberg
ovari
##adf
sharper
ccl4
873
devel
depict
symmetrically
ultrasonication
iw
overload
micror
##ionate
xf
216
collapsed
multist
##kc
##scale
csi
1970s
crest
hydroxymethyl
estr
upwards
seaf
013
p¯
dispar
##h0
ensembles
##mb
regenerative
antigens
neurop
##−β
aqua
pancreatic
controversial
##igenous
nanoindentation
microplate
##→2
##yz
dealt
expands
hj
stops
centi
i∈
dbs
tca
hmbc
δθ
##omel
diminish
disconn
episodes
molding
##meter
conflicts
faradaic
saliv
rsm
histological
boost
##inase
miscibility
2050
conference
evaporating
tol
contrasting
ga2o3
dm3
4n
transformer
conformal
completeness
mater
interviews
leth
dropping
ph2
##tip
kle
js
obsc
interstiti
genotypes
80°
harder
##ordinated
indisp
adc
spinal
purge
recognised
cukα
pth
265
emissive
hinge
δφ
##acid
gnps
##ecomm
laf
pge
##factory
biphasic
homopolymer
divergent
anatom
extraordinary
univ
spacec
outermost
locking
explor
mediators
noth
grab
228
ics
caroten
266
c¯
tapping
accommodated
cycloprop
t6
cte
barely
##generation
tann
##glacial
##su
##tedly
##adienyl
ch3nh3
##fets
heterod
crystallographically
japanese
detonation
tere
caf2
randomized
et3n
photoconduc
poc
sio
213
novo
src
−n
morning
commod
σx
opposing
interventions
inflection
antimony
declines
ultrafiltration
boat
##wo4
ingaas
##iscus
nitrides
##emi
purchase
herm
φ0
adherent
ldhs
irrele
##anic
nonmagnetic
doxorubicin
##fy
hcv
goethite
forens
181
hydrogens
excite
##ynch
neo
lath
##4π
##azo
tetrabutyl
h7
therapies
funding
##ogether
1450
pyruvate
eclip
aband
5p
##cul
fluorophores
sizing
##hydropyr
nucleated
ql
radiocarbon
hors
streamwise
590
aided
chalcop
unpublished
##fb
##∼1
microscale
roche
2γ
snapshots
encourage
impingement
remarks
##ppe
δy
connects
sab
353
sieved
fading
##otoxicity
zncl2
storing
##eritics
algan
na2s
achievement
adjustments
lasting
undoub
##bran
tbs
attract
ug
glutaraldehyde
scalable
##bow
r6
pna
##aj
##−λ
spectrometers
##iry
micromeritics
encouraged
##td
alder
unnecess
spectrophotometric
globular
rpmi
rbf
lactam
bins
fea
aerial
bolt
##ondon
microph
li4
compressible
gated
##s0
judged
fad
##holder
elic
##∑m
nanotechnology
experimentation
subcut
acetylation
##uche
story
burgers
fluidization
tubulin
alters
willing
coexisting
mae
miller
cct
cryostat
dilutions
##ilateral
borohydride
##eo3
macroporous
maximized
appreciably
##stat
spreads
pyramid
banks
tantalum
necessit
ξ2
cables
berg
008
consume
biosystems
∼8
fos
enforce
strat
sime3
altogether
ineff
heterocycles
beck
minimise
b12
phospho
imagery
sip
##anoate
nonradiative
keithley
quadrupolar
##al2o4
ment
equiax
glycosylation
airborne
##ologists
hydroxylation
3r
expresses
quantization
##g0
1011
ρc
exchangeable
phospholipids
##gar
defense
209
imported
pads
nebul
##xj
boronic
incipient
##ached
abaq
475
cij
swim
##axel
nak
waveforms
vitr
collaborative
prey
calibrate
thrombin
tm3
wd
hydroxyp
##onectin
pushed
zb
tlr
tautomer
biodiversity
tracked
abaqus
##vic
##→1
labelling
withstand
equiaxed
pioneering
1015
pri
##−j
dub
##h18
mcr
##ro3
mwnt
lots
chf
∫0∞
pha
##bel
vsm
configurational
##atized
microchannels
thousand
cleaner
isostructural
ionisation
egfp
##n5
bi3
##uma
##lings
delivering
##olis
mammals
1−2
desert
2×2
summed
profess
artifact
recurrence
informative
##ithi
phosphorescence
n7
2o
##kp
−40
c23
##anediol
frost
brunauer
french
loses
foods
differentiating
p450
photoresist
40°
##ems
avance
incur
irrelevant
##uds
contracts
dbt
hbox
carp
eroded
##oscl
obey
exemplified
teph
director
2v
α0
dτ
decolor
command
obstruc
##rip
##lett
kong
lyophilized
acr
stereo
1950
adenosine
transect
##elles
chemiluminescence
ken
photoanode
elevations
assigning
##oney
occurr
fe0
fortunately
cigs
##hu
dit
reproductive
##groups
offsets
hepatocytes
##−θ
##k3
##⋅⋅
cres
pathogenic
niger
synergy
hemispherical
dissociate
lithosphere
demagneti
undist
headspace
envisaged
entropic
merge
eyes
264
phenotypes
srm
##yclo
283
varie
underway
shocks
##uchy
##hertz
##adiazole
undoubtedly
evaporate
preconcentration
spacecraft
dictated
creek
registration
ventr
##fu
electropl
4th
ϕi
gqds
233
shaded
steeper
##03
##kd
cuvette
ripening
pd2
spans
darcy
influenza
##mn1
guiding
δw
##anions
dorsal
breeding
indispensable
sn2
shading
occurrences
##room
vaccine
##p4
1×
lactose
pga
##cetin
diaryl
##ometrically
##indole
playing
mosa
residents
salen
##2−x
redsh
qpcr
c30
polypyrrole
sinks
andes
percenti
##eries
cun
10c
aside
mimics
igf
##ician
##5o12
pnp
catalog
##olines
smec
furfural
cite
phag
synchronized
##thetic
##tb
deoxygen
##m3
riv
hew
##osterone
##h20
opc
josephson
descending
##ocyt
gtp
prospective
hct
london
apc
interstitials
pak
##col
denmark
uncoupl
gil
pyrox
sixth
mns
##ahn
pursued
nucleophile
gratings
lamps
##jin
##feld
p5
cargo
interpreting
##ipolar
alkalinity
propargyl
cov
ay
##bral
ethoxy
194
ni0
inaccur
##amn
butadiene
nanoplates
1q
steroid
emim
sulfonated
dishes
##6h4
resili
nothing
wilson
nominally
spall
ile
biofilms
contig
thermom
varieties
eag
decis
pamam
diaphrag
beside
x−
dimethylamino
335
fibrosis
305
##ptic
fluorite
orc
cauchy
emmet
psc
phylogenetic
child
basalts
v¯
la3
mercapto
##opyrox
gk
metas
seab
embod
belg
##gb
tren
secure
specular
aza
stator
dielectrics
economics
##tps
224
erk
lange
assure
coff
μi
transversal
shallower
feedstocks
uncorrelated
423
##rological
clasts
supra
learned
effector
7000
##zhou
solubilization
4p
molybd
seq
tolerated
splits
fept
zk
rebound
##iley
vv
quanta
microl
safely
##transferase
hds
fluences
galer
suns
7h
quantitation
vapors
endocytosis
daytime
crashes
##aphthal
##i3
##ocus
proportionality
hclo4
electroless
sls
sinθ
−α
relay
cyclone
dwelling
ν2
polyamide
subdiv
##tites
shor
##arbonyl
accepting
eur
lobe
oversh
chalcopyr
##∂p
thermoplastic
underestimate
biomarker
pregnancy
rrna
proving
desorb
dul
li3
misalign
justify
polyhedra
##erators
014
activates
dsdna
nitrification
##u3
valent
25°c
temperate
clo
retinal
ellipsometry
ϕ1
corrugated
##˜1
nm2
fres
disreg
φi
##olia
##x4
jurisd
239
1977
##inol
god
antifung
circumvent
contributor
emotion
momenta
frank
##180
went
##τ2
calorimetric
investigates
bifurc
your
borne
seep
elaborate
multidim
##uccess
acknowledged
gac
δν
homology
cosine
336
inserts
congestion
pim
##illa
ache
−f
unsubstituted
internalization
restore
retre
−q
worthwhile
polycarbonate
devised
recordings
##ultipl
##k4
mounting
1013
lineage
ire
lipf6
noe
##uce
gag
##urrently
##hem
##cience
swept
isoch
preferably
tbp
microns
antip
##ashi
##agement
##crystal
##chair
##arbon
entrap
monoliths
##as2
bacillus
navigation
capacitances
floodpl
odor
1550
nanopores
comments
cts
microbes
drx
portfolio
forensic
micrometers
##ela
##oen
hump
saved
brake
antibonding
merits
depolarization
ons
haucl4
jacobian
polluted
##ipp
##train
diamin
restrained
ecap
occupants
tempo
skills
≈0
##dft
landslide
oi
dha
characterise
cryo
##ionization
varepsilon
hzsm
2030
ceiling
mcd
tsun
iteratively
cosmic
interband
inject
cid
merid
hac
potato
collinear
eph
correlating
agro
##trimethyl
wetted
##s3
unsuccess
nur
cope
##foil
discussing
realizations
##prints
establishes
submicron
##lers
weekly
axi
eddies
responsi
optimally
electromechanical
ch3coo
##ni0
##plane
##sto
incompatible
federal
song
depolymer
barrel
reh
ec50
##nh2
##gp
bypass
unambiguous
helic
overlayer
lind
dppc
azobenzene
##⩽0
qy
σ¯
t¯
bain
##ique
inhab
bou
phosphonate
tce
1976
cpp
189
70°
diisopropyl
legislation
2ch
8d
phosphatidyl
coplanar
##avoid
bodipy
necrosis
##ropri
##oluminescence
tco
hin
interrupted
organisation
transporter
##ineral
joule
##omings
tong
belief
agglomerated
spc
responsibility
1975
wavefunction
impar
bread
bacterium
efflux
12π
ndvi
14a
shortcomings
∼40
##ifers
gasifier
glucopyran
##rig
absorbers
tunnelling
fing
191
unres
2200
##utely
basaltic
dy3
multidimensional
diels
lymphocytes
##tex
##ovirus
cones
223
##mis
adsorbing
##μ2
exceptionally
muon
door
##˜2
donation
##orphyrin
##olys
welds
##amel
##rops
radiant
##ρ0
dad
cpg
congen
designer
virtue
penta
##arp
##μ0
photolith
##plas
magnified
absorbs
tsp
hairpin
storms
ascending
unavoid
ratings
αβ
suff
superscript
simplifies
dσ
mct
318
p38
malvern
lesion
ovarian
ross
spectrometric
nitrophenyl
reside
##atr
gaining
isotrop
recoil
antifungal
disrupt
kerr
phosphorous
annulus
aao
photomultipl
##ityl
alq3
grate
nucleophiles
commitment
fibroblast
msd
communications
things
depress
##pack
employees
##hb
##etra
anneal
##jn
##ortic
lz
##enter
galerkin
la2
immiscible
racem
aro
hess
automation
superplastic
pipelines
##η2
##−w
##122
leaders
0n
##anate
##aland
nss
##anuclear
europium
##mas
hkl
fruits
sbs
##oxacin
mcl
trunk
ωc
cheaper
overestimate
malignant
shrinking
fy
tmax
suddenly
ξ1
terephthal
p6
proceeding
stably
tablet
gneiss
rearrangements
##ondensation
inaccurate
ν1
cook
contrace
chalcopyrite
atomization
kω
mn3o4
lysates
herbic
provinces
740
annually
hpt
acros
sums
kgy
negoti
ta2o5
sequenced
spintr
cdw
pulling
quadruplex
##c4
tunnels
superparamagnetic
governance
phage
ipp
##estation
vulcan
1π
sfe
roc
na3
warning
metallop
determinants
dune
##adiol
aspir
microcracks
daw
c57
boos
##iskers
unsuccessful
##aughter
##oscope
siem
metastatic
##orrected
decentral
delib
singularities
atheroscl
enterprises
annot
melamine
kam
##2o40
##ouring
##trap
##tilis
##tish
gibco
influx
633
insect
clog
reb
343
evolutions
suspected
lasted
pinch
alkoxide
refine
subdom
415
biop
accommodation
##fcs
##osilane
rectangle
relying
##e0
attribution
cytosolic
pyrochl
cues
henry
##expl
##ogluc
silencing
hpc
282
pli
1024
suitably
ph3
thy
##oselectivities
##oreduction
scavenger
ppp
##akers
melanoma
neph
immunity
zircons
075
t−τ
artery
ipce
recommendation
∑l
−h
acrylamide
remnant
hdl
microg
thiolate
ocv
divertor
epic
disagreement
σij
##anian
peel
triazine
δϕ
goodness
obeys
nested
diges
impressive
##kinetic
urinary
##omething
##∂xi
drifts
##xc
something
236
biosciences
qui
warmed
meets
##anil
yr−1
lagoon
lenn
u3
t∗
denominator
##rb
adjoint
##d0
##tise
eggs
radially
diblock
resilience
conflicting
overhead
inhomogeneities
permian
##yt
maybe
σt
pdcl2
inappropri
quercetin
cole
rmsd
pon
authorities
alexa
bedding
admit
v5
mises
pertaining
electrocatalyst
##ecks
pll
dangerous
ejection
digit
chn
roller
escal
complexing
atrp
eccentricity
##ipr
attracting
ωn
withdrawal
973
iz
##rocessing
detergent
ppi
nai
unnecessary
##available
foaming
##osteric
carbamate
yearly
dmap
ozonation
reciproc
16s
exhaustive
catchments
cucl2
violation
flushed
rationale
i−1
o−
##aphyl
pecvd
dioxygen
##loor
pmn
byproducts
##sel
##choline
leader
aerospace
biodegradability
manipulations
mnp
seat
feel
factorial
37°c
tethered
r¯
mineralogical
diffusional
##ˆi
ineffective
aptes
automob
timescales
##4p
conject
concurrently
jahn
concerted
predictors
bilinear
relaxations
sts
eventual
238u
neel
ρ2
reset
##org
435
barre
pvd
abstract
interplanar
academ
218
bist
##alloy
upconversion
296
##pta
cosy
ppo
##111
∂p
passenger
intrac
ems
27al
kohn
ignoring
meniscus
grouping
bathym
brackets
##versing
sampler
neon
twisting
∂f
spect
fans
inoculation
electrol
007
rin
##xz
disproportionation
cie
##atization
cu1
plank
seeking
##oder
##lv
mercapt
κ2
catalase
butene
278
wavy
dpph
geophysical
incid
robots
emmett
subtilis
##sv
##alumin
##body
naphthyl
sid
methacryl
##ofluorescence
neutrino
multiscale
congr
5th
ψi
aven
damaging
stepped
dca
fick
mapk
pyridinium
observational
dinit
g−
bimolecular
hopg
sorbed
agencies
zfc
heaters
egr
supervised
##dw
containment
perforated
mgh2
farming
bump
oet
hsc
pacl
supersonic
##tw
cements
r12
cerv
electrochromic
siemens
7h2o
##ilm
##alis
graphically
truth
facial
toe
cp2
strengthen
deconvoluted
incentive
νmax
qualities
errone
sensitizer
inductance
287
knockout
qh
worksh
triblock
physisorption
abat
##azone
221
decisive
evaporative
indol
##m−1
dump
geology
mm−1
bax
5×
limn2o4
spores
radon
incineration
##pls
−r
azido
pesticide
truck
tok
tib2
manipulate
shi
##osm
1014
alleles
pluronic
##utors
acetal
yk
amel
t2g
congl
alarm
##amido
##gement
isc
supplying
pyran
##dn
triflate
nonspecific
timber
##101
engaged
vacant
glc
mov
tfts
unexpectedly
##ylate
stimulating
sweeping
antagonists
birds
casein
chaos
delivers
upregulated
progresses
sm3
slurries
hyperpolar
##formaldehyde
richness
tech
253
##enberg
inflation
li2o
##heating
##elli
scoring
mullite
distribute
##ectious
##−u
oval
##thio
##−7
##olinium
adipose
mie
cyclohexyl
destroy
siloxane
bunch
##enchymal
345
county
lining
##atsu
npp
##igand
##zsch
particulates
tumours
hysteretic
##ahertz
shielded
##esia
repub
euro
φ2
simplifying
##3m
eda
3jhh
##ch4
uncorrected
bjh
##igt
pathogenesis
pds
spong
biomimetic
unreal
porosities
##dew
overlay
thromb
sich
computers
##lr
meh
finn
ψ0
##−11
##ulatory
doe
lk
statements
##ρ2
schmidt
25°
ch2ch2
##ught
toxin
readers
##atitis
brazilian
boots
dss
1073
ambiguity
pseudomonas
rnase
1064
mtorr
rdf
523
##yal
professional
contradiction
descriptor
##pt2
bloom
irreduc
nets
pi3k
##∫ω
buy
glucan
trifluoroacetic
terminals
warmer
fascinating
lifting
insets
ρ1
smc
huv
concluding
243
gdc
##al0
landsat
chiller
sterilized
##utting
##uri
profil
kyoto
amenable
##las
prand
##opter
smp
appealing
temporally
zj
deco
##inos
αs
precession
lennard
peroxidation
##eners
russia
microsphere
intrap
yan
infectious
flexion
processors
gov
looked
##⋮⋮
schol
##kov
ellipse
tailor
##itus
mgb2
mlct
paul
##issociation
531
phenylalanine
ticl4
accessed
condensing
republic
fines
monovalent
bioenergy
##−6
mutated
pins
bagasse
##imensional
repos
120°
##pot
polypeptide
iu
##cip
managing
hinders
genera
##do
tapered
kernels
replica
ingot
##tler
disassemb
losing
furnished
teles
##pz
retin
##strom
##ropyl
##imides
∂y
##onjug
shales
ejected
##ameth
genetically
σs
deflections
diffusivities
qws
pulled
##dg
titrations
positional
favoring
bessel
subcl
hemoglobin
unstructured
cesium
##uosity
official
ges
punct
concretes
hydropower
imc
##azoles
knuds
precious
##ε2
ce4
stabilised
masked
formyl
diastereomers
administr
##phenols
cym
counterion
##hx
spaw
feooh
kegg
hdac
##acian
cancel
forging
mandatory
unresolved
##stadt
sapo
orogen
sdc
genomes
gnp
##leting
swell
constituting
styr
saturate
templated
extremes
paraformaldehyde
##cat
nikon
retrofit
bang
ξi
edl
thirty
octanol
portug
##asome
##upp
finishing
##eco
immunoassay
hilbert
pyrolytic
cta
essence
pseudocapac
butter
regioselectivity
photop
nh2o
nafion®
tonnes
##arth
##aid
holograph
coloured
matters
fragmented
randomness
−v
professor
baker
bao
050
qiagen
celite
##phosphor
##olvent
subgroup
triclinic
bioge
succeeded
peek
directive
##rolactone
515
pfs
uppermost
biosorption
floods
preheated
pauli
hre
±5
bot
##orescent
##entified
spherul
searches
3600
oligosaccharides
meat
bringing
implementations
concludes
consent
alleviate
δb
float
microelectronic
227
tracers
1o2
oligomeric
ansys
pedestrian
##titution
digest
10000
piperazine
2p1
##ynitr
ultrac
cardiomy
metamorphism
bold
knudsen
gard
##map
asr
personnel
sight
perylene
a¯
osteogenic
pozz
##−5
adherence
nano3
##ophila
evs
contacted
witness
##oisomer
lectin
dissem
##roscopic
degassing
##ohist
irreducible
lis
1650
##cnt
nco
consolidated
##orbent
isocyan
##ologous
rq
unde
repeats
314
photomultiplier
ashes
flocs
midpoint
armchair
6s
crp
norms
690
tiles
twe
alga
packard
##ishment
##enda
##alite
k2o
tribut
players
##jt
nil
##h13
volmer
slowed
##unal
x−x
euc
ψ1
tetrap
intensified
ending
nord
leukemia
##otemp
replicated
kaolin
amid
##osulf
##ymmetrical
race
fauna
legend
cos2
unusually
porph
perturbative
##h17
irreversibility
brushes
ethylenediamine
lumen
realizing
exerts
ancillary
entrained
ultrasonically
undet
c5h4
sans
stretches
atomically
eosin
infinites
1x
##ritis
fluorination
centrosymmetric
reper
rash
contemporary
2ν
neumann
mds
##benzoic
arres
##aphth
ou
tile
bea
dash
subdivided
immunop
zealand
##tring
immersing
interdiffusion
217
##analytical
##2000
morb
surp
hexagon
ores
conceiv
bottleneck
##h15
reconfig
migrating
cupc
##lylation
##aze
nonlinearities
##osable
nitrophenol
intestine
##ram
mbs
embodied
permeance
rca
suggestions
##nac
kon
301
agonists
permission
lial
uncomp
##pad
prox
##mv
admissible
mannose
##onine
ϕ0
mesoscale
##o8
4×10
alcl3
extractions
chemists
##∂y2
grit
silicide
tailoring
recursive
0000
impairment
settled
##axis
sulfonyl
biosynthetic
corroded
018
nodules
##130
mdr
δ0
2q
gpr
plc
ethn
interdig
am1
##how
##standing
longitude
estrogen
##ocratic
embritt
##b4
putting
malay
fishery
##economic
x˙
unm
stereoselective
shri
polymorphism
##fined
abatement
50°
##zations
cofe
cervical
biocl
σr
abiotic
woven
##arene
packets
hypertension
dapi
mount
##ospor
##facts
analogously
avoidance
dnp
edi
##ivalent
nrf2
compromised
thro
bearings
δj
plun
descent
scintillator
prandtl
##pg
##oethylene
h−
tapes
benzylic
glue
##cus
##ressure
omn
##⩽1
##elts
mpeg
##254
asser
##itoneal
entrapment
notched
thomas
appliances
##uff
remodeling
inappropriate
acylation
macropores
phantom
juice
geomorph
diffuses
ferrites
italian
##je
chrono
vbm
13b
nanocrystall
icr
initiatives
polysulf
saturates
estuarine
adhere
##opyroxene
##ω1
jurisdiction
galvanic
##oisomers
blotting
lute
eleg
##lt
unrealistic
##ulants
teg
##ali
faulting
overcoming
nitrox
cofe2o4
epc
lignite
methodological
ionomer
methylimidazolium
gat
ellipsoid
dialkyl
aids
c5h5
≈1
##iment
3he
solves
streaming
tcd
glycosyl
quies
brecc
diaphragm
##rotective
governments
artefacts
oversho
amination
guang
yellowish
agi
reminis
lto
calomel
toroidal
raf
244
subp
drs
##amed
##omatic
gao
wastewaters
imino
photost
##reen
##gard
unsuitable
eva
proportionally
superlattices
eagle
##ph2
finland
photothermal
##mega
predictable
seafloor
mimicking
epoch
−p
chlorination
##sey
15a
bounding
##atable
accession
stereochemical
1v
swirl
engineer
##thm
prisms
riemann
elucidation
names
hertz
bms
moon
##perturbed
ncc
superp
##encl
perfusion
##ϕ2
edm
∼12
acoet
detrital
linearization
393
installations
tir
h3o
crn
talk
sensitization
∼200
ale
##bell
##alid
mangro
flowrate
ux
scco2
everywhere
texas
tft
fda
022
aerated
##y0
tmr
al2
parasite
uncontrolled
emulsif
pozzol
enamel
columb
pps
c25
tibet
γs
##pyrrol
##tructuring
−9
x˜
unin
dominantly
urgent
recurrent
imperme
mental
##ennial
##cox
cfs
pest
deh
farther
##kx
mocvd
myocardial
anticipate
##piration
tcnq
prodrug
sofcs
kut
surveyed
840
##elic
chelation
spars
##inin
seemingly
redundancy
ϕ2
softer
replen
derives
interlock
ρi
βi
cosmetic
immunohist
voxel
binuclear
langevin
orthogon
arterial
##activities
##olate
inactivated
ωp
imperfection
fog
concord
compensating
1018
1→
aquifers
m5
unexpl
##oflav
initiates
carbam
offspr
3400
supersaturated
ova
##tio2
##meas
glutamic
norway
n−
diffracted
phr
brand
destabilization
peaking
upr
snap
##irradi
noesy
deleter
mwh
##accept
encr
medial
##lla
photoexcited
darm
##1c
threefold
##140
mills
shake
grounds
plumes
flour
sessions
1973
dihydrogen
kalman
reminiscent
paris
modifiers
wj
i4
diluting
##wave
era
sideband
practition
migrated
hse
launched
nhe
ch2ch
−16
picked
underl
affiliations
##ethanolamine
subcritical
600°c
jin
wealth
σn
posts
carl
behaved
3d5
hills
collocation
catenin
cosh
slowing
haadf
bears
stabilisation
methionine
mhc
gnrs
cellulase
polycl
wk
##acetamide
feeder
remember
translate
adamant
lst
interle
##estock
planet
##arcin
inequalities
##atric
whiskers
restricts
sugarc
−50
276
b6
##otyping
##neous
eof
csc
incision
cofactor
acknowledge
bags
consor
##aments
##⋯o
uts
aot
inherited
jh
bulb
benzimidazole
##zygous
##onym
bdd
zz
serr
elastomer
−a
##away
sher
hots
f¯
killing
blockade
eruptions
spanish
unperturbed
parental
heli
templating
lungs
reusability
272
configured
cementitious
−β
persons
staphyl
##oreactor
gating
237
##oborate
sugarcane
##etre
igneous
belgium
##bore
sapon
redd
decolorization
participated
##depend
ribs
loq
parameterized
##yles
##heet
preserves
fq
quint
legs
supercooled
conting
maa
rights
##cz
metallurgical
manifests
typh
rooms
mesophase
rtil
recre
500°c
substructure
impacting
glcn
rbc
sin2
##olyte
ambiguous
dispatch
accessory
##1n
chlorite
rhenium
enterprise
piles
##weigh
lich
multiply
imprinting
superiority
fleet
cerebral
searched
##rid
polymorphic
oxime
emf
epig
dryer
acf
hypothesize
splic
lco
definitive
3β
poling
assets
seld
##otr
ecd
##cos2
lights
undisturbed
##iner
streamflow
cyclotron
kh2po4
oldest
anil
dong
242
john
##mos
livestock
ellipsoidal
2β
eta
consult
aluminosilicate
##∇2
unconform
##icative
interconnection
##istal
tddft
bambo
bohr
##x∈
chemos
supplementation
alkynyl
quantized
atlas
##elmer
zebr
fume
nanoribbons
99m
##1b
σ3
npc
convinc
dehydro
strait
intravenous
promega
##odiimide
jacket
##j0
b4c
∇2
deleterious
sulphuric
##rocyte
elegant
289
initialization
unfolded
lysed
reward
##aca
pyroph
geot
##whel
maker
glaciers
parents
##uls
tetrabutylammonium
pdna
neutrality
polyclonal
400°c
print
b5
dθ
##itaxel
cyclohexene
diminishing
623
terahertz
dipped
1900
destination
pyrochlore
mips
voigt
eleven
macrocycles
acetylacet
bould
audi
##cipl
##ocytic
seldom
embryo
motility
chicken
##ynchron
cyclin
nozzles
##amming
catastrophic
820
##soft
retailer
252
nanoch
upregulation
632
723
fibril
lunar
∂z
epp
std
71073
regularity
outperforms
unavoidable
coversl
necking
nh4oh
pvtz
coiled
flowed
authority
h8
lept
modulator
##vo4
overwhel
bhj
∼25
richard
shortage
q¯
3σ
2λ
commensurate
blad
18h
485
excur
buses
ccl
technically
scheduled
tetracycl
darmstadt
transporters
##tn
miscible
sulfated
kron
peng
tmc
casscf
excel
pep
methoxyphenyl
forster
c26
dmfc
viii
illustrative
extrapolating
kyr
hands
##degen
##vr
unrelated
qubits
nfs
730
ignore
cuso4
##φ2
##otherapeu
zonal
1017
wg
##orrh
ferritic
##icine
##h22
##osene
c57bl
##elike
amu
juvenile
corne
tecnai
attitudes
β0
tailings
dros
resides
thirdly
tianjin
398
compliant
zen
evanes
##−∞∞
##dθ
##ohybrid
resor
ldpe
stores
mesenchymal
rheed
ingredient
fragile
rans
dij
gues
al0
msn
amylose
carn
##articles
movie
##access
css
elap
unal
sold
restoring
##enna
electropolymer
casing
unbi
##atching
monochromated
microv
utilisation
gma
poland
approximating
dips
welf
boe
dien
potentiodynamic
reconstituted
chronoamp
polycyclic
diatoms
sse
960
benzophenone
enlargement
acclim
##branched
penetrated
nont
xd
quencher
soret
rendered
outgoing
##5a
trapezoidal
acyclic
cdi
bamboo
aragon
stereoc
translates
alongside
##ti0
aminopropyl
##cor
tridentate
lpg
worthy
incubating
##igner
##discipl
photoexcitation
expose
economies
ce0
rechargeable
pst
ssp
nanobelts
pcms
##arriers
latency
##zymes
strings
##osidase
patent
epithelium
a6
shoreline
csd
answers
accuracies
recovering
gemini
qj
geopolymer
mathematic
##siloxane
fets
ym
##face
york
expertise
aba
advancement
vicinal
qx
##aming
contradictory
equator
chlorobenzene
μw
302
##eb
degrades
paclitaxel
evapo
##esi
solubilized
fame
dre
proteases
∂w
tetramer
fgm
osteocl
##aea
nitrobenzene
labs
##psin
ripple
ask
weaken
##uitively
sevent
jar
##culosis
backscattered
ca3
gor
##pv
interdepend
##str
##coming
perkinelmer
mop
offspring
−γ
##ahedrally
##ustrine
##oproterozoic
cher
tril
imposes
dcb
##sw
coii
##hor
steering
liquidus
pum
radionuclides
rpa
##afish
speech
senes
##nik
sell
approval
##tiveness
##−g
lsmo
dor
lobes
illite
predominance
##∑l
biotinylated
o6
##eu
btc
accelerations
guests
muff
granites
proposals
a11
him
##pq
##olu
cattle
byproduct
soa
fug
microprobe
hydroxyethyl
li2s
cca
welfare
rnas
eigenvector
monohydr
rework
adsorptive
asap
smectite
2ch2
adsorbs
dcc
bse
gasb
823
c28
mnox
o1s
noc
mesozoic
in0
##aba
enum
tetrakis
locality
deactivated
excursion
##glycer
shunt
governs
intelligence
floodplain
ims
##ooh
nucleoside
800°c
rectification
volunteers
hemicell
publisher
tendon
pyridin
alternately
acetylated
benzoate
ode
bem
stepping
accumulating
##n6
##fsi
converters
μj
τi
coffee
zebrafish
spd
impression
##lassical
j∈
eocene
##cell
polydisper
undec
discount
##agel
unchar
coronary
sf6
bicyclic
mound
##intes
cd3cn
##mat
wheels
perdew
##ysts
disintegration
client
1≤
featured
anomeric
385
tmb
stomach
tephra
unconv
drained
hapl
ids
ethene
c6h6
haf
desulfurization
beer
nanopow
##haus
bricks
−λ
british
hans
##zs
elu
unbiased
blowing
preformed
mch
airfoil
causality
4500
lcst
##∂ω
x4
geologic
##itch
upfield
fluorene
20th
screens
absolutely
aibn
##iterp
admixture
263
radiance
imagej
##fg
demographic
pliocene
desiccant
chalcogenide
cch
nanopore
##ℏω
practic
slows
workflow
setups
vasp
##∂w
crank
buffering
leucine
glovebox
explanatory
weakest
srr
confusion
superfluid
##etized
blanks
##aping
unequiv
photoionization
pis
##≪1
810
dpv
bacteri
kerosene
##acous
adversely
moo2
##ca0
6g
continent
behavioural
cytosol
darker
unaltered
##rg
246
tendencies
##ocrine
magmas
bob
##ernst
floc
interacted
hoff
oak
##ectral
oppos
a˜
invoked
##intestinal
notations
polarizable
discriminant
favorably
995
interchange
##works
heteroatom
mettler
separable
calf
resembling
za
##agnets
abbreviated
evanescent
ots
trains
creatin
rhamn
mutagenesis
tortuosity
##l0
##rotic
ligated
tetraethyl
formamide
expenditure
ferrim
delam
ferrocenyl
lifted
monocytes
examines
osmosis
manifolds
hydrogenolysis
reproducing
bird
nucleob
scrub
engagement
thermometer
cucl
##och2
##thing
##recipitation
εi
##tidal
roi
spiking
rta
scot
##precip
evapotrans
gastrointestinal
bap
hbv
tsunami
holdup
guideline
−z
spectrofluor
##sic
bdc
persists
alf
unidentified
polyelectrolytes
##iper
##ferro
deviator
isobaric
hanging
daughter
σc
npv
pkc
sider
climates
br2
recruited
300°c
neutrophils
emt
returning
nta
##dτ
##dep
kmno4
sul
mont
detox
northeastern
2deg
herbal
dulbec
correcting
##aphthalene
a−
kappa
cpa
relied
manipulating
##×3
nanocubes
comprehensively
∼9
springer
saint
v→
associates
kre
##icians
thermop
ionizing
excretion
photoactive
tunability
caffeine
##enet
##001
cascades
##scf
##ilanes
sinx
##71bm
1¯
##rint
identically
emphasizes
229
faceted
gaba
optima
emplacement
vuv
affine
575
ana
substitutes
n¯
ligament
laid
intuitively
035
lfp
ars
lactide
nernst
parties
transmis
1974
polyhedral
pvt
embrittlement
triazol
hewlett
kub
register
399
dummy
noninter
j−1
mosaic
##lg
ahp
infiltrated
##othiophene
proliferative
##ν2
dirich
franc
mpt
rio
overd
cob
##aporation
kk
pc71bm
cbz
intersect
please
replaces
messages
−b
##aphenyl
logistics
landscapes
spectrophotometry
pivotal
pfa
petrol
##wind
##rogr
##place
digester
programmable
##ocks
∂ω
detuning
hamilton
1δ
dirichlet
−∞
architectural
##inarily
dick
nanol
##3o7
mep
maximization
wigner
depressed
emd
m¯
bolts
evapotranspiration
stereoselectivity
scm
alkylated
photolithography
lanes
##alg
isoelectric
stan
3200
##obis
uncom
depositions
coo−
016
##onomy
cape
363
dulbecco
c2v
village
sulfone
transaction
osteoblasts
upgrading
issued
ansatz
hammer
tpy
chirp
alpine
316l
descriptive
247
photorespon
phenotypic
mth
centralized
##ageen
##xe
1972
tsc
stann
cellulosic
circumference
copyr
discernible
cytoskeleton
##d4
glazing
converging
percentile
biomaterial
##h19
overlo
money
ppt
stilb
##irs
zm
horiba
damper
##orov
##omo
wako
flushing
tariff
zeros
##xa
ablated
##avalent
chilled
traw
unconventional
nicotin
ethics
dope
##gged
peptid
pyrex
rigorously
facade
##marks
##xga
c27
representatives
carboxylates
soda
bronze
##∂ξ
belts
revision
cockt
##itively
ethynyl
underestimates
shen
carrageen
smoothness
d¯
jobin
concentrates
1960s
restricting
cow
biopolymer
tailed
reductant
adhesives
esa
##emis
epma
antiferrom
##oxal
830
gcm
photoelectrons
numbered
heterogeneities
ntf2
liter
##bad
ordinate
afterward
amorphization
confound
##oding
##pw
−s
amaz
c3h6
researched
##aver
perceptions
volatilization
decarboxylation
oppositely
grassland
k¯
##elin
alz
len
underwater
99mtc
responding
wiley
lysate
gul
±10
aluminate
fsp
##osphate
dα
railway
##igated
attains
overestimates
##icidal
oh2
##upro
ti2
negligibly
mfcs
coup
cutter
##disciplinary
kindly
aptamers
nasa
niche
wer
ponds
##ithium
maleic
solubilities
derivatized
copyright
##sky
teams
laur
potentiostatic
liclo4
beet
bto
overflow
facs
sacchar
cadher
volunt
##icious
bcr
iber
gauche
h¯
polygon
instruction
##enses
##arum
sweet
atpase
zp
##∂n
##iy
fractionated
li1
##oco
military
##weg
taxonomic
deaths
rashba
antennas
##itan
tcm
isomorph
∼60
384
##oxyp
395
disinfection
bib
chromatic
t7
thinking
mmc
uncoupled
convey
##ifted
reject
14b
diastereomer
267
mast
ρl
e4
travelling
hsqc
tobac
##agons
canal
##otor
smectic
##yster
##ovite
equilibrate
reactivation
##yllium
guard
##kel
declining
##ophenes
##hai
infinitesimal
2e−
−18
shrimp
dairy
opv
##kv
exotic
##ohe
hps
rcc
no3−
3×3
preheating
tedious
draft
boilers
##acol
##americ
1τ
##oft
unbur
unlab
μn
hydrous
219
ctr
mo2c
aromaticity
catalyzes
shots
multin
rcm
##σ0
fungus
##μs
synt
258
3100
erroneous
solitons
prestress
incomm
carls
centro
##fis
coprecip
pcbs
##i∈
337
permutation
blur
calder
thermomechanical
##ensitivity
southeastern
appreciated
housed
observables
functionalised
fibronectin
het
canadian
occl
lcs
86sr
4°c
##2d
consumes
292
hvac
##talc
μv
pyrrolidine
dispersal
eukaryotic
j3
ppc
##aram
μf
flattened
nanohybrid
guo
isocyanate
interrog
continually
##wc
daylight
decoherence
mineralized
##∗∗
trophic
magnon
376
boards
c5me
##otoxin
concentrating
##otite
uncovered
peristal
abol
tuberculosis
##zens
validating
##c12
faec
glycosides
##meth
tmd
spine
examinations
0×10
planting
##achy
intrusions
ruc
locating
tobacco
occupational
412
shelxl
##rus
ethylenedi
hydroquinone
partitions
##uf
jointly
college
perpendicularly
arpes
##etall
##istor
inland
##keting
##tep
wick
fatal
metrop
294
pmp
##anger
interconversion
##15n
camb
hob
bf3
htl
woody
srs
##ocated
##uh
abl
##si3
optimality
swiss
eeg
unbalanced
##iters
dilation
τc
propulsion
polycondensation
sut
hampered
amylase
##forth
therapeutics
jurisdictional
skyr
yarn
nanomaterial
interconnect
mediating
##mj
297
charts
lox
##frost
tpe
amido
edax
bipyram
mineralogy
lethal
hydrotalc
tfs
insects
instantaneously
deficiencies
##gging
fertilization
##hexyl
scand
lao
renewal
germination
pup
##3o8
compacts
lightning
poms
cemented
neurot
whatman
hydrologic
immobile
dvb
yvon
bose
neighbours
logs
##azep
##06
stratigraphy
asa
dewater
hfc
bioethanol
sieving
cdot
pneumatic
040
dams
academy
physisorbed
c2h6
cst
##ohexane
osteoblast
rotates
268
##obacterium
imprec
uz
streamlines
dps
elder
zooplankton
perfluoro
splittings
##qd
009
complemented
highway
##encil
##sin2
##amatsu
s13
attaching
enforced
sectioned
scarcity
himal
pfc
icosahedral
##00000000
imperative
oscilloscope
propell
rps
sketch
corning
renewed
rve
lifes
pess
##ropical
olefinic
courses
##owing
historically
259
##rij
asympt
tensions
gig
c44
mosfet
hyal
exchanging
gx
exon
stagnant
##ilinear
ischemia
wel
simulates
weber
##eads
riding
broaden
upwind
1∕2
thermophilic
impermeable
6×10
rnai
exped
palmit
progenitor
salient
##neys
radiolab
dech
##idinone
asn
exacer
profits
linesh
exacerb
##atech
##isable
2ch3
##chh
##lip
##acyc
unconstrained
n→
β3
##opoly
##thon
lle
##anges
##ulative
3jh
##mx
segmental
subsidies
##ampler
##tetr
##omagnetic
##ynes
icc
prospects
##arms
tire
##ietic
smear
choline
frustration
##redict
dppe
μt
hormones
##bas
orogenic
tek
climat
adren
microorganism
##elting
plasmons
outg
amelior
skill
diastereomeric
seabed
innate
disclosed
quatern
tta
eigenm
dcf
dod
cartridges
hydroxylated
1019
##121
spectroscopies
##dine
intimate
rewrite
interst
inducible
esd
builds
landing
immunosensor
bo3
hemi
m6
boreholes
roman
277
257
innovations
asset
##y3
1173
deformable
fsw
##eel
purging
tides
tripl
subtypes
elm
τr
polyol
##alo3
acquiring
noises
buildup
nitriding
methanolic
fingers
sinter
english
##uated
peric
511
413
abd
deionised
multiplicative
splitter
metamaterial
qf
##bulin
laplacian
δα
sco
shuttle
stp
cue
uhmw
polariton
signed
sih4
feg
delith
acp
starvation
repository
770
collections
##chloride
aze
mca
protrusions
2co
##°n
phosphoryl
ρg
envisioned
oo
dtpa
cinnam
metallization
ced
u˜
bosonic
graphitization
##romycin
338
noninteracting
##ensen
y¯
##qt
gland
manifestation
##2m
c70
##cap
spheroid
##δs
nomencl
orthotropic
pseudopotential
corroborate
##optim
projector
##ample
cea
##uloses
licensed
##amus
401
shoot
diagnosed
walker
coch
nomenclature
dithiol
agitated
porcine
paly
##change
nitrided
##mor
##acoustic
assimil
##abe
##itance
##so2
anatomical
##ethers
sketched
##σ1
##onential
##fficiency
lacustrine
codon
interglacial
328
plasticizer
vfa
episode
mines
mg−1
aragonite
thp
multiferro
ownership
bleeding
palaeo
##ria
ln3
##lan
sill
somehow
mhd
dipyr
verifying
##cinimide
retrieve
microanalysis
αh
##tified
yc
fresnel
decentralized
ωm
pathology
seas
achiral
ideality
##ascul
tolyl
tries
mlp
17a
1971
immature
a12
outcrop
prospect
7e
920
heck
confluence
seedlings
misalignment
infar
integrates
##lf
intraper
4r
quasic
saliva
oec
tempering
##λi
stakeholder
nicely
3k
##qr
alcoholic
465
##tii
evaluates
diamonds
−μ
buch
tocop
##istan
unsatis
fluidity
880
baltic
northward
cep
uio
sols
investors
−m
estradiol
disparity
##fe3
uas
λn
electrokinetic
decane
percol
restraints
##vb
cdm
fragility
ffa
##otoxic
molecularly
bps
##yx
##wm
monohydrate
beryllium
town
golden
phc
swimming
campaigns
deacet
contracted
##sities
tocopher
feeds
day−1
onshore
gadolinium
dibenz
photochromic
helicity
cadherin
utr
ern
87sr
diffractograms
bladder
fps
genu
intuition
retros
##al2
2800
planarity
freest
granit
universe
100°c
attempting
lithiated
peristaltic
cyclohexanone
137cs
1540
##θ1
edu
beckman
##octyl
rcs
gage
3π
univariate
dimethylamin
transmitter
arriving
solvers
##iced
870
virial
##entry
ostwald
boric
s¯
northwestern
xz
##anite
sacrificed
chemok
recognizing
##ocarcin
pmf
##4s
pipette
sno
cbd
##ibles
##phon
iia
lgm
practitioners
1486
borane
challenged
quadrant
biopolymers
##thermally
##dtd
ejector
larval
dds
ωk
microgels
∂r
t5
##atos
cy5
aac
##adal
##othiaz
polyox
so3h
dialyzed
susceptibilities
262
inspected
u→
epoxides
tone
electroplating
oligomerization
circularly
drosophila
ascrib
accumulates
pervaporation
glucuron
scholars
q4
##bond
remanent
##rolifer
stearic
##issolved
##chem
##anionic
periodical
straining
α3
unint
##∘c
pdos
specifying
##ffffffff
locom
sinh
qk
develo
amend
layering
−y
tomato
plex
paleozoic
silicic
signifies
haw
shs
k−
elapsed
regioselective
alkenyl
pea
opal
yuan
##bz
amplify
ecr
##ucker
coupons
propeller
reinforcements
##arenes
332
quartet
pept
##idopsis
triphenylphosphine
unaccept
carboxymethyl
shorten
cantilevers
dir
ascorbate
butyric
ireland
998
borders
pegylated
msa
422
letters
##pk
##02π
isothi
fuk
σz
agreements
contributors
trou
cancellation
truss
bifeo3
intensification
isent
yar
commercialization
multipliers
corrugation
seph
fano
crossings
isoform
questionable
nutritional
spa
fluent
peters
gsk
##uda
gapdh
desiccator
trinuclear
##c5
ner
undercooling
chern
rop
compactness
weakens
2w
##cosh
bever
hla
devoid
##2k
phone
depri
##omed
oceans
nova
neb
##wash
usable
##uper
smoking
responded
experiencing
seiz
##zr0
##700
clamping
##roliferative
moo4
quiescent
conceived
c29
ascertained
200°c
excip
##alytical
##hlet
##assays
##tebr
aie
asphaltene
lcm
direc
phyll
tops
dumbb
aod
scho
eclipse
firmly
##105
ctc
outcrops
##quet
##igration
redshift
fermionic
##iceous
274
accidental
clearer
cloning
−ω
##uder
prefers
##−vis
steroids
yttria
permeabil
schedules
coordin
lioh
organoc
##orborn
tackle
##azin
kno3
τs
smad
ankle
##arial
az31
eigenfunctions
pmol
##erosis
##tot
arabidopsis
##×m
undeformed
topologically
−g
##o3−δ
marketing
gnr
mpl
worker
cash
llo
borosilicate
251
li2co3
dnt
alzheimer
sublattices
##oliths
downwards
##≈2
tpc
mce
skewed
toled
autosampler
bij
bi2te3
##f2n
dunes
pc1
greenland
−100
tempered
subcutaneous
linbo3
prototypes
w3
rha
sweeps
carbor
trimers
##h26
chrys
amd
compe
soxhlet
srb
sphing
seepage
spanned
neighbourhood
orally
sfg
ptru
monometallic
##sation
1−1
unloaded
k∈
dal
##igo
##opsy
uhmwpe
deteriorated
030
graphpad
funded
cyanobacteria
elicited
diastereoselectivity
1273
##illers
##wo6
##yanide
##amy
pdgf
craton
−25
augmentation
absc
opinions
##utory
##vn
x∗
steeply
##jol
znpc
dξ
associative
redistrib
αn
geos
phenoxy
southwestern
unsymmetrical
hamamatsu
cabin
##−π
lcc
chie
sulfates
trichloro
fretting
eject
wz
usd
nemat
abnormalities
inspec
structuring
realised
preceded
16a
spheroids
cuprates
killed
cusp
molybdate
hema
qb
535
##ocomp
δτ
hydrolysate
##orms
deleted
reconc
mox
photodissociation
nico2o4
bde
slave
ρf
##cular
richer
5m
skyrm
##odym
017
tfc
normalizing
imines
foster
η0
strikingly
retreat
##inn
imprac
millis
##hof
nation
##adiabatic
avi
ωs
grasp
neurotrans
r5
favours
cfc
##h21
uva
pba
microgl
##anda
ecology
heterotrophic
industrially
##q0
unequal
##dk
##oxazole
ingots
isotopically
petrochemical
##benzaldehyde
snapshot
ficti
curvatures
pt2
unreli
##×10−7
fibrinogen
focussed
uv−vis
dγ
engage
368
succinate
skewness
fluidic
533
reformer
malaysia
exported
corporate
e¯
sensitizers
hon
knn
mush
throat
##ague
stiffer
amplifiers
tentative
nds
biosensing
inks
mei
cocktail
htc
ori
##iana
astr
hydrothermally
epidermal
furnish
inch
hek2
spectrally
0002
burnt
submarine
9d
remot
liberated
vth
succinic
degeneration
penetrates
14n
stray
biophysical
hek293
×100
computes
spillover
sheared
nzvi
860
nations
##slope
bph
denatured
wors
##ila
owned
widening
##imate
lavas
pme3
abdom
cliff
entails
cloudy
pyroxene
##4v
critic
17o
approximates
sb2
hbr
qin
ucnps
reflectors
bpp
sidewalls
yz
##tail
zeroth
tetramethylsilane
drude
physiology
biasing
sak
tpb
automobile
detects
occasional
silical
labour
−60
protic
##h25
−σ
##s8
renewables
ships
60°c
ncn
xenogr
pta
kutta
evans
cytosine
qing
competit
##siological
##3b
polygonal
02°
xin
##econds
dce
##ucks
l5
maternal
a1g
argen
aberration
discour
##flamm
445
progressed
log10
cqds
dba
traver
chile
##ochem
generalize
eig
##ogap
brad
wrote
corrid
1ρ
pyrazine
persulfate
alm
foliation
##onversion
runge
fictitious
l12
masks
interruption
sexual
spawning
diffuser
875
##iest
##sulfonyl
transmitting
regenerator
##uprofen
concl
mst
cropping
mane
cenozoic
disposed
conceivable
##φ0
frustrated
alve
##∈s
##azide
diluent
jackson
spatiotemp
383
sext
austria
##ilin
oxidations
eutroph
arenes
asthma
floors
1⩽
##butyl
flattening
calcare
glucosidase
perma
emergent
##oad
pbi2
##umber
lscf
dopa
xg
pco2
##epit
zc
parasites
mell
##fitting
torus
rehabil
bromides
noncovalent
prognostic
gss
localize
netzsch
refinery
homes
##4f
rheometer
extractant
10−12
≤0
chemo
protects
##piper
backbones
##fan
##calc
##2h
348
##mcs
##eton
##agm
absorbent
10−11
commodity
π∗
masking
##atile
altitudes
abandoned
wy
##μ1
subsp
carbonized
metro
temporarily
ase
scalability
##burgh
pdma
durable
##φi
249
interl
923
##uding
exiting
microtubule
c−h
##grass
306
##px
##oblast
3t
estimators
##umid
##kev
enolate
alum
suture
inhal
hcooh
785
##flu
##bj
diego
permitting
##ophyll
##isomerization
##tonic
hg0
tradeoff
η3
##ipe
staphylococcus
##amily
##102
triglycerides
annexin
terp
arose
mpd
##bis
zag
dicarboxylic
ghs
encode
##aten
coking
##mia
orientated
ventral
##unc
resorcin
##osilicates
∼80
206pb
begun
##toral
mulli
antisense
conclusive
constitution
##jan
nonionic
700°c
deviatoric
dbm
flowers
coloration
##∫0t
5k
ibuprofen
landslides
controllability
procure
045
suggestive
chemotherapeu
unavailable
daf
cyclopentadienyl
html
≥0
deceleration
∫0t
topo
regressions
disj
interchain
relap
intersecting
indigenous
b¯
−ρ
warb
dus
##qj
##otin
peer
stabilizers
competent
271
attainable
imb
nujol
polyhedron
##ience
##avir
conduit
σm
decomposing
plaque
rearranged
##qui
nanofl
backf
sio4
photovoltaics
injured
fertilizers
##≥1
thorium
rougher
uniqueness
rees
higgs
ohm
contrac
##pbi3
d33
bdt
solenoid
bak
pcd
shann
toolbox
coincided
##∈rn
ssf
updates
##onoi
conceptually
tuff
##nk
tbc
−j
silicalite
greece
jnk
pseudopotentials
phill
qsar
1000°c
##4−
fuj
fourfold
glycosidic
send
starches
2018
clinic
deteriorate
abts
vienna
##lyc
epd
quinol
keggin
##∂ψ
##ario
initiative
##trimethylammonium
ldos
prognosis
avr
baths
plains
bbb
unrestr
##amoto
panalytical
titrated
emits
standpoint
keyw
gyration
##iveness
403
##δp
##icz
resembl
414
omc
##igenic
##cm−2
##ographs
irregularities
brs
sinopharm
multich
requested
##erad
polyphenols
simplifications
spt
##mog
overcomes
shoulders
l10
qz
mulliken
seismicity
initialized
spallation
proteasome
voronoi
propionate
##inker
channeling
bioreactors
honey
photodetectors
proteolytic
n5
##rl
p123
subtropical
eman
sheep
xh2o
virul
##ju
styl
grafts
zheng
cβ
##elen
explosives
elastically
##olk
455
isocratic
outlier
hydroxyls
cogeneration
whis
##moo4
invalid
slump
citi
separators
ilm
##ugg
4he
xo
historic
intrusive
##2s2
contiguous
abel
husk
constriction
propagator
permafrost
##φ1
##ucl3
aero
##olites
annihil
cu0
ibm
endurance
##δv
magnetostr
foundations
nayf4
oily
disaggreg
disciplines
##ophthal
urethane
gla
ophiol
##ϕi
##kii
##odymium
pdc
calcareous
mek
##clc
bosons
c33
±3
massif
thail
ischemic
siliceous
memories
9h2o
##∂c
thiazol
painting
##ectable
player
propionic
291
millimeter
carrageenan
toledo
ware
χmt
rie
thailand
bends
asynchron
apci
antarctica
servo
nep
serpentine
overshoot
##orp
thiocyanate
glued
ripples
follic
teach
##reted
αc
comply
conserving
encodes
sms
##→i
thymine
##otf
##forming
clc
robotic
girder
##spectral
##ymore
hosted
##obac
cetyl
pulverized
uracil
hint
compton
emulsification
demethyl
sulfite
christ
li0
##anne
trafficking
srt
545
hα
n6
ethical
10th
bruc
hexafluorophosphate
delicate
dosages
inaccess
kits
20°c
##125
breadth
dmac
posture
hyperbranched
incommensurate
321
hygroscopic
##een
arylation
ms2
2300
spinodal
overpotentials
conducive
pdda
lanthanides
kat
anisotropically
331
∂c
033
elbow
aph
extents
tellurium
w¯
renormalized
transg
azir
40ar
antiproliferative
voluntary
##eme
generalised
324
photodetector
uric
cocaine
erythrocytes
##classif
anymore
diols
glcnac
russian
ptb
oleate
alternation
cbr
na2hpo4
selects
standardization
vss
goni
281
encryp
##ϕ1
279
bilateral
h12
lipophilicity
routines
dication
selling
dmd
cyste
##obacterial
electronegative
##11b
εs
thermophysical
abcam
gpu
##ˆ1
immunofluorescence
carot
logging
suppressor
##floxacin
carbonyls
ccm
chromatographed
permanently
bca
##gested
asperg
hoop
322
flaws
chic
cdf
semiclassical
scored
4m
myosin
passages
popularity
edible
##ophane
cruise
uw
award
##fx
tcc
##hin
##pj
urbanization
lhc
tele
tfe
thermograms
rde
cementite
372
hippocampus
planted
geo2
arsenate
jr
rims
##γ0
##apore
decoration
vgs
αk
brevity
phenanthrene
niii
gmp
connectors
##ravel
dibromo
##imi
kill
emi
wings
hypoxic
specifies
brighter
∼13
crisp
simplex
davis
volcanoes
pbse
granulation
slits
##rystal
##iden
uplc
restraint
##rogens
##erom
calibrations
##rates
glycoprotein
anamm
traverse
ε˙
lithospheric
odds
##athy
occupancies
atg
kun
subdivision
λs
##ontrol
wwtp
misle
priorities
##oxidized
clearing
instron
##izabilities
hcho
rov
tied
osteop
intentionally
leo
##process
##top
improper
sees
malaria
contextual
##ampling
queue
ag2o
suspect
xij
mack
csr
diazo
8×10
sgs
responds
bituminous
tsa
dbp
bootstrap
##otactic
remotely
braking
microbalance
grading
tukey
concentrator
polarizer
permeabilities
exhum
envelopes
1260
website
resident
ethanolic
pyrocl
ωr
9000
##vac
ψ2
multipole
heterojunctions
microalgal
cocl2
offline
raster
agr
rcp
024
orn
##arts
impulsive
pph2
##gpa
carboniferous
majorana
shin
inconsistency
mosfets
exploratory
incidents
organisations
mock
irradiations
inventories
##β3
fut
microd
taq
faulty
hydroperoxide
##ictions
fluoresc
kumar
elderly
##iterpen
s1a
purine
subsidy
##ins2
benzoquinone
jer
γn
mollus
encompasses
occlu
judge
reducibility
anammox
dechlor
dag
mls
muscovite
emittance
##hydride
∂ρ
##asy
##ounce
criticality
##wp
tup
chars
kolmog
ica
encapsulating
##dma
402
35°
lini0
##eradish
distributor
cleared
307
##z0
##ysis
wavefunctions
tosyl
ratch
##otting
nal
458
vib
sos
##ship
∑t
pbo2
##pension
horseradish
dess
fra
##enkel
crev
degradable
spatiotemporal
##gans
halogenated
vds
tfsi
connector
m−h
##qm
unravel
notes
vdf
radiated
##⋯h
terminology
mms
2o2
thienyl
synergetic
nile
##elson
roofs
stones
scopus
##azines
495
weathered
verifies
meridional
adapting
optimise
isoprene
resemblance
arb
atherosclerosis
##ello
aic
fcm
terrane
meal
nme2
irreversibly
sitting
##h28
fifteen
brittl
tourism
##astatin
bubbled
admitted
675
shutdown
##cm−3
photoproduc
granitic
subcellular
syl
rhs
dissolves
bmg
##ike
monitors
ndi
grign
dial
505
k→
ho3
334
foli
##under
bidirectional
vitre
##zn0
parametrization
ue
purchasing
##rystals
crowding
sensed
dpd
o5
homod
pushing
fij
abdominal
tetraphenyl
filamentous
yaw
opi
berry
269
epigenetic
workshop
maneu
anodized
recovers
foraminifera
##o−
ch3nh3pbi3
hco
ferrimagnetic
cn−
apertures
mangrove
nucleating
brittleness
spatio
quasiparticles
insolation
diagonalization
hca
##δ1
##rod
##lacial
##absorption
r13
nm3
##illance
##eav
##iber
##athode
emotional
nanoh
940
fulfil
trait
boehm
hydrom
postulate
stereos
hessian
imports
teng
##ige
elicit
hippocampal
splicing
zet
kbar
f5
##endorf
1−exp
##acon
##κb
##jing
299
chaper
unsupp
##∂∂
somatic
decrement
mfs
facult
##cx
##verat
clogging
revis
friedel
dscs
cpd
carcinogenic
ag2s
##iffer
displace
rz
hung
##orestation
silts
heuristics
anfis
estuaries
slugg
providers
peclet
thyroid
ccp
molds
##assie
tray
diagenetic
sluggish
##116
chondrocytes
launch
regenerate
cdo
aspart
nitridation
10d
sulfonamide
hexahydrate
stub
disposable
##τ1
1023
##wf
invis
parr
responsiveness
neurological
mmhg
≥99
3300
identifiable
##opoietic
epimer
legendre
comet
topographical
615
topmost
propri
phillips
##issa
lightly
##pent
programmes
gins
completing
##poly
magnetized
classifications
logn
αv
gle
restrictive
##ofluor
scru
##het
ettring
##n2o
testosterone
holographic
inund
oxidizer
triplets
feso4
ranks
analyzes
kingdom
toxins
muller
overexpressed
dispersant
judgment
herit
cu2s
unconfined
analges
warburg
7li
4f7
tpt
dodecane
##illi
buli
prevails
normality
fills
hof
##annual
pere
ric
anx
4800
##liness
uter
invariants
uncommon
anton
##oluene
peroxy
flexure
deepest
trypan
cart
maximizes
isentropic
aeolian
vmax
##ishi
sinws
singh
strut
##requency
nonadiabatic
##hk
brow
∂∂t
mall
crosslinker
##stoichi
hindering
##ovian
consortium
repress
singlets
mn2o3
jl
inlets
reflex
complexities
358
workload
iee
documentation
dyad
novelty
licenses
clsm
##ˆ2
serot
lamella
c3h8
twinned
stimulates
activators
swedish
##oate
cultivars
attrition
hod
metamaterials
ρv
henceforth
ventricular
dehumid
deviated
rbcs
h9
ettringite
∂n
##agner
cef
##atil
biotech
magmatism
citing
toy
profitability
meshing
##mk
diatomic
admittance
##1d
exhausted
crist
cxcr
nanofibrous
3t3
nsc
356
gfrp
paradox
##aser
##∂f
multivalent
suffering
conjecture
##erex
##onene
collimated
southward
electroluminescence
cyclooct
grignard
fiss
certainty
enantioselectivities
fels
flavor
529
densi
unpredict
elusive
missed
participates
##ohexyl
imin
photopolymer
##ball
##hea
itin
pyrrolidone
heteroatoms
##ayan
mismatched
fmr
##flower
telomer
ich
ish
pa6
pinhole
fifty
surveillance
##veratrol
responsivity
##ophysics
##anthin
evoked
1×1
718
fep
hemicelluloses
##urin
barley
insb
352
intermetallics
mobilization
f127
##clin
aprotic
multimode
##qn
thal
##ordinate
dyeing
bisphenol
silico
κ1
richardson
editor
modulations
ward
##atson
327
342
frenkel
∫γ
418
ψn
lifespan
kolmogorov
##azan
wholes
developers
80°c
mnii
avg
mrnas
arrived
checks
##jl
2ε
caso4
∼300
λm
∇u
photostability
wanted
dissected
cai
yy
justification
mating
millions
funds
##icting
relaxing
fluorides
unreliable
ferromagnet
constraining
photoble
hcs
anns
##olvation
caldera
whisker
lani
microelectrode
##istribution
zrb2
necked
##mes
##persed
##eder
366
##activate
gou
transects
coupler
pret
horse
mediates
requisite
psii
hydroxylamine
radionuclide
ε¯
##odon
d10
silicene
condon
##oglobulin
##feo3
##opulation
elegans
polarizing
2cl
gird
##achment
dihydrate
pnipaam
subtype
##onomer
initiators
localities
entre
astrocytes
##ocarcinoma
polymerizations
placebo
impractical
claus
wellbore
dike
photosensitizer
##∈v
pme
##nmr
mong
##axane
coroll
yp
m06
ρ¯
inhabit
trenches
##eda
378
bursts
sigmoidal
##uw
oblig
scrutin
hook
metallographic
elasto
crs
rgb
##oupling
formalin
revenues
δ15n
##xm
##meyer
subgroups
statutory
##entric
pelagic
coastline
jak
genuine
kerogen
wagner
burke
s2−
hamiltonians
eik
coriol
kas
mo6
knot
npd
underlined
trips
fpga
##extraction
korean
sourced
261
nascent
fossils
wei
htf
intricate
discriminating
summarizing
chemistries
occlusion
fap
##ccc
h2po4
advent
##oleptic
ucs
whey
##ogenes
tls
##sim
xerogel
z¯
chelates
555
nax
disulf
outlines
carotene
vermic
4k
femoral
##imb
numbering
microsoft
ηi
deox
##berts
butyrate
λc
replicas
vanc
educational
terephthalate
3i
crc
thereof
obliqu
##uria
λ3
##orst
ourselves
scl
alignments
observes
effected
manganites
317
yolk
lithology
famous
##mpir
##trich
cif
disassembly
portugal
900°c
hba
lithic
silty
##nis
meo
2→
resveratrol
garc
electrooxidation
hexamethyl
colonization
##inflamm
hss
##ρs
##iodic
scler
gd2o3
residing
speckle
magnetoc
sfc
porphy
##ti5o12
colder
plutonium
shop
workability
##imidazol
shannon
acetophenone
thc
osmium
rolls
attaining
andre
∼70
##xo
##δu
326
threads
##abrication
timely
backgrounds
tetrafluoroborate
lsp
pdfs
discom
electros
nls
sont
nitroc
nicl2
threonine
landfills
dependant
pentafluor
thom
nbd
η6
communicate
##osi
##pass
nanoph
##∈c
stripped
hydrotalcite
lii
zf
τd
flammability
coads
##xk
rog
ruii
recombine
candida
reddish
intral
impactor
##θθ
singapore
##allyl
416
constructive
stat3
biotic
970
lysosomal
constructions
hfp
galax
premise
sau
janus
##abc
ag3po4
##1r
bioin
##otopic
slips
mapbi3
pbt
anem
epidemi
ρa
aspergillus
watson
integers
15b
quantifies
1969
certification
flies
vene
epitaxially
polyether
##prin
iro2
universality
piping
creatinine
hepatitis
limestones
internalized
arabinose
stein
##osol
##eto
archimed
demagnetization
procurement
anthra
023
stiffening
triad
344
ssm
##xr
ch2ch3
baz
absorptivity
convincing
pt3
stiffened
oxygenation
mtbe
tailing
arthritis
##°e
misleading
##anis
##adentate
λj
ete
tst
930
##urus
telescope
administrative
uncharged
cil
309
multitude
##otent
spear
reducible
photoelectric
heteronuclear
eom
##itiator
planktonic
##ucleotide
kramers
carotenoids
requests
##lithium
rag
vascul
luminosity
depolymerization
poul
##linear
isolating
sale
normalize
sao
##dust
1080
bleached
magnetisation
harness
coalesce
##withstanding
tct
∼11
integrable
##blende
τf
geochemistry
irrigated
mead
svr
thermograv
herring
queries
notwithstanding
##h24
sporad
##iri
paramount
##ctan
∂θ
erbium
vz
alc
##tu
nonin
uhp
amended
preventive
extractable
pozzolanic
mtx
396
invertebr
compromising
mitotic
tev
saturating
unbounded
kag
sepha
1120
##00f
phosphonium
∑α
311g
undetectable
fdtd
##γi
δij
tetras
eα
##e4
psychological
aem
interpenetrating
443
##ocyst
multichannel
immunore
crm
##asions
classically
inkj
zn0
##coplastic
towers
completes
dε
808
pbte
clastic
##hev
yd
coprecipitation
depressions
50°c
travels
sponges
##zno
##amyl
usp
thrus
2so4
433
utilising
barb
##05
letting
mrad
mose
cyclobut
taper
##inea
sepharose
bipyramidal
2cl2
##etres
miniaturized
cuin
discomfort
γl
##ronic
trucks
sns2
spps
grape
surprise
orthogonality
annotated
pigs
##garis
vel
unsupported
mik
mord
coriolis
acrylonitrile
recess
g5
lsv
##mpirical
fern
schools
carlsbad
disconnected
semim
bure
##gev
##ismic
philos
competitiveness
schist
seminal
cresol
nif
sij
stayed
409
eutrophication
##abic
##level
γ˙
ncbi
f8
##omyc
csm
inkjet
##seed
amr
##soh
reactivities
##aac
##anz
pyroelectric
dsr
∇⋅
medicines
##ecept
helping
−π
rainwater
baffle
hydrazone
##oka
ecp
##tk
c5me5
##adex
##exponential
instructive
transcribed
anyway
fingerprints
##ynap
411
hydrofluor
na0
##ocally
observers
folate
cstr
##ripts
senescence
alkaloid
##coat
##3s
##copically
##oulli
unlabeled
slenderness
gest
prost
semie
sri
##fract
dnase
culturing
burnup
thawing
recipe
brains
404
pentagonal
dihydropyr
bernoulli
##∂φ
−u
nd2
nimo
agate
molded
dbd
pedestrians
##eur
sunflower
ferritin
flammable
delim
billet
homologues
linole
vulgaris
oscillates
caught
interlayers
##2s4
remanence
anv
controvers
##terone
sawdust
cr2
tier
7×10
th2
peeling
αm
##atites
ventilated
complication
ctd
##oi
multistep
reversing
351
##atg
repeatable
##aret
slots
fixture
725
##eca
collapses
profitable
anharmonicity
died
asperities
magnetostriction
chromate
insectic
nucleon
polarons
ecg
##jj
347
dsa
buyer
453
interfaced
attractor
incurred
hfd
unfavour
gln
##asite
rescue
mori
unimp
survived
ida
##onically
controversy
upgrade
bh3
czech
photoanodes
pax
1223
conspic
graphics
intraparticle
tribo
##a4
##istar
monetary
mss
##alloys
hpv
auditory
##ighting
buoyant
desire
clathrate
dorm
e−i
magnetos
luminous
##uber
sybr
408
341
sensitively
pebbles
nitroxide
rehabilitation
plen
minimally
identities
coulter
safer
rounds
multif
fasting
obese
vaccines
inaccessible
miniaturization
flutter
##eria
##icol
##otroph
mucus
condense
##buil
endeav
dbu
##h30
stratum
##±3
overs
slack
preprocessing
εf
##tze
microtubules
unsatisfactory
biodistribution
albic
##igned
avidin
αt
quoti
−70
grams
pag
contrasted
luminol
bracket
stromal
electropolymerization
νs
lorenz
stover
bta
##itals
##neg
microgrid
decid
occupant
airway
##sile
##ogenicity
necessitates
bean
mam
##hang
##ωi
declared
2700
jam
##asian
fe1
nighttime
bite
##dex
nanometric
biomolecular
encounters
sre
spirit
repell
intercepts
1030
integrations
vitreous
##ungs
threading
##urfact
4×
−l
roughening
tep
volcanism
elaboration
##6h3
localisation
##lutin
obtainable
territory
ieee
517
chimney
026
∂∂x
##amped
sera
urg
tsi
pierce
electropor
εp
##co1
photochemistry
trifluorometh
oocytes
##opa
overexpressing
tiox
##∂t2
rationalize
##t−
fellow
##δh
excludes
spore
libh4
gwp
blown
transplanted
impart
##cious
preca
matrixes
g6
##trip
##fying
##7a
erosional
florida
fe4
cbp
hexadecane
pyroclastic
##imaging
marble
struts
spanwise
coms
##eo
##σi
polish
chondrites
stemming
gz
slowest
##cu2
reefs
oda
γc
jb
457
complicate
fittings
itc
decol
##aska
wester
##olean
eastward
jg
kang
##reshold
uˆ
##oxazol
symbolic
nα
nucleosides
##ni2
dimeth
geost
cyclisation
##adm
entropies
demanded
##hand
viscoplastic
puzz
defic
partnership
##abr
##wj
rts
##erometry
##anthus
miniature
endothelium
znte
chh
##ppers
plenty
##othiazole
factorization
entail
1−ν
chronology
2u
##ardt
transpiration
θs
formerly
##ρg
unacceptable
yarns
pendulum
##cj
rh2
rabbits
##anoyl
chch
trehal
##otonic
##var
790
boiled
manipulator
overpressure
##uccinimide
chelated
warping
npt
catheter
##azed
excavated
gos
##anov
##ussa
erk1
acoh
naa
news
encompassing
analyst
robinson
pvdz
sfs
pharmacokinetics
##ensin
impede
##qe
precipitating
illumina
yangtze
mwco
##obutyr
onwards
##iging
indones
##222
biogeochemical
mrm
##cast
fugacity
perce
##ordi
##gradation
##ochron
invariably
torques
∂ψ
iup
deng
##ℏ2
haze
lbm
cinn
##ch2oh
wen
underp
poled
sss
seasonality
ssr
imagine
##cls
397
##106
ρb
sticky
overr
summit
y∈
deficits
pressur
ρu
calorific
1968
cfl
σa
crucibles
warrant
gpp
θc
hither
antifo
##olybd
adju
8e
b→
lods
σp
phosphines
pci
michaelis
cpr
##mar
##berry
nanocarriers
ln2
upright
thiazole
isra
modulators
methine
shrna
mimetic
photoconductivity
mudstone
diverge
##ante
markovian
kq
##alcoh
treg
##oneed
fundamentals
polyphenol
##w12o40
flooded
bu4n
msns
##arf
oscillate
nebulizer
##ours
xia
balloon
codoped
wetness
##mine
ramping
060
##atics
##∕cm2
banded
corollary
photoactivity
disposition
clinker
thermopower
keys
supervis
jord
##agt
septum
transactions
erd
##104
e→
microcrystals
repaired
immobilize
her2
tectonics
##inded
ipt
resistors
hitherto
concomitantly
##statically
nπ
354
nicotine
##rows
htm
##anto
mesoc
neurotransmit
maximally
telecomm
axs
##wl
angiogenic
ttc
1965
marking
enhancer
trna
retardant
storey
##octane
gapless
hydroxyphenyl
sorbitol
organizing
hopf
genbank
lags
zenith
6p
balb
##photon
tio
epitope
367
witnessed
semiempirical
##ba2cu
hda
bluesh
interferometry
judging
magnetoelectric
##δn
victor
afterno
##tpp
mesa
mesityl
##physical
##rotected
rao
##∼2
nanocrystallites
kaw
vegetables
##mol−1
##v3
abnorm
pseudos
021
513
##urian
proges
me4
feet
##srx
unburned
pyramids
##omyces
finnigan
biotrans
supercells
δγ
##inski
porphyry
bi2wo6
instrumented
relaxor
pfm
iceland
∼16
nasal
hres
dia
arrives
sih
elastomers
zeolitic
achievements
oligocene
iris
prefactor
diphenylphosph
##enia
rehydr
##ime3
pace
idle
lob
immobilised
conglomer
ensuing
si2
amalg
endpoint
nut
vec
shipping
##itian
monom
naphthol
min−
annotation
ethylbenzene
vesicular
319
tolerances
##eve
##asi
devol
##τ0
##udinal
diversification
benchmarks
polyesters
az91
violated
thing
##obe
paints
phenolate
llc
2z
rhombic
nitrogens
##μi
subbands
##onuclease
pelle
albicans
microbiota
374
arach
unexplored
heav
scarcely
frit
macromolecule
detoxification
qcd
pc2
unobs
jd
##avg
407
norborn
dere
multimodal
##δij
##imax
embank
recap
speek
downregulation
plur
gapped
635
3l
ilmenite
catabol
biol
emphasizing
##1s
ribose
mrs
chromosomal
intimately
##imes
##uses
wrapping
cme
##khorst
λk
spalling
##ensely
spectrophotometrically
##iped
tanh
diets
346
rotors
interconnects
li4ti5o12
##ococ
ducts
rabi
##1p
immunobl
2fe
execute
357
ocs
superstructures
##uo
##bg
tetrac
scavengers
asynchronous
825
hierarchically
nbt
institutes
1967
zr4
topical
##bf4
##osper
##tof
##cnts
##entrif
beat
elucidating
dmpc
364
##trictive
atop
photonics
integrator
##ophosphor
fumar
sigmoid
proxies
##dea
dλ
octa
boolean
449
##iques
##gfp
yes
hsv
75°
adjuvant
stance
##irradiated
explores
clark
##pecies
isostatic
skim
lcp
##asone
##xga1−x
pillared
##c6h4
diabatic
whitney
##vj
textiles
th1
σf
##romy
degussa
##nds
devonian
##asil
−ε
##ql
psp
lineages
##ampl
##verty
restructuring
transversely
hut
photobleaching
attenuate
lex
plaques
pages
scw
universities
516
##echnical
htr
sunny
deserves
epilayer
tnfα
intermixing
pvk
boehmite
4t
5r
ϕn
desolvation
##onder
subf
##ocin
peroxo
franck
garcia
plough
parkinson
eel
understandable
##tenes
##n2o4
pharmacophore
clinopyroxene
##oprotein
feng
mere
mitigated
sessile
2ρ
shrub
##ontinu
drier
##hom
##anners
distillate
mose2
##ixi
svd
##g3
intertidal
##04
##wan
correctness
##otetr
micromechanical
pyrolyzed
meantime
##tisation
faint
superex
owner
##ochromism
percept
##undum
##ynaptic
centuries
backside
relaxes
duplexes
##wegian
pij
magnifications
voxels
affordable
photoresponse
preload
orthon
##mus
moire
aspen
terminate
settlements
teaching
##lac
ere
aminobenz
deforming
parenthes
painted
##charge
pherom
polynuclear
chemotherapeutic
abi
divinyl
sephadex
corals
##icos
c6h3
0°c
overtone
adr
switchable
##iatric
equid
ops
liberation
cassette
immunostain
faunal
trab
##θi
dihydrox
nca
contractions
∑p
commented
eif
##≤t
osaka
φn
differentiable
watersheds
r−r
retina
fluctuate
decarbon
##orecept
gift
##rov
nbu
wholesale
##al2o3
pinene
##itating
payback
##ubbles
unfavourable
tear
qualified
geomorphic
irregularly
tracker
autoimm
cu6
customized
##mentioned
mega
accumulations
z3
##×10−8
mucosa
##aines
tess
##iths
lapse
fom
intel
∫01
##α0
eclog
slipp
ν3
phosphorescent
mitigating
repression
16h
##∂ϕ
terminating
bowl
dimples
poverty
ais
cpl
lubricating
pearlite
tad
##quat
uncoordinated
superexchange
##entary
5i
rainy
hurric
ultram
##front
glycans
gill
cau
silan
expects
16o
ni2p
phthalocyanines
##ysz
underline
parentheses
∑r
classifying
##≤n
cmk
dianion
insurance
cf3so3
autolab
glycogen
invisible
##kar
##phone
bottomed
##heated
outbre
mpi
shade
δψ
toughening
hell
bainite
glycan
diiod
abovementioned
##beam
464
quadrilateral
yig
chs
spruce
qrt
griff
mooring
##sinh
labview
attacked
fade
##clinical
osi
vy
##angles
##ectal
mappings
nanoplat
lamina
amers
##→r
polydisperse
hso4
homopolymers
shir
sharpness
ptt
pch
##hler
##fusion
znfe2o4
creativ
afternoon
interdigitated
forestry
##−13
oxyhydrox
##chhoff
pyl
schiz
consecutively
sgn
norwegian
millil
##ecommons
draining
delithiation
hdo
##103
polyacryl
metallo
trehalose
nonstoichi
telecommun
s14
devolatil
illness
mail
unrestricted
mucosal
377
antec
bioi
##afe
pebble
creativecommons
432
willingness
1580
weyl
holistic
##wavel
klein
visited
r−
raph
μe
##tx
reorient
24h
##esting
loi
##optic
inaccuracy
pto
guides
rack
screws
microreactor
eti
anodizing
overlooked
##ifluor
keff
5°c
d12
polydimethyl
ruther
nm−1
518
##900
##threshold
tocopherol
rust
plugs
##oxycarbonyl
μr
datum
editing
forty
##agin
−∇
falc
fecl2
outperform
##isco
##qq
##stalk
sloping
lysosomes
graben
multiplets
gathering
oms
##fk
210pb
##icle
associating
∼500
##anin
##ionyl
photovoltage
hec
fluctuates
toluenesulf
ru2
20a
triglyceride
jj
362
nondimensional
##aped
excised
encapsulate
tf2n
kirchhoff
microporosity
##oderm
##fluid
stefan
u∗
resisting
apple
diamino
phthalate
##oons
##∫01
c32
diverges
sha
anisotropies
975
406
metallurgy
hsi
dumbbell
1750
sustaining
artemis
fbg
ige
##10a
##ϕ0
vibrationally
h2l
https
colours
vle
cooperativity
spintronics
beng
σe
##odia
galactosidase
454
perchloric
##nj
##ymmetry
adipocytes
##ccs
cph
990
ferroelectrics
inhalation
##abric
itinerant
##ca1
##gluc
cymene
squeezing
leptin
adf
##emicarb
##sal
##oval
municipalities
##¯m
gcs
aortic
circumstance
solitary
2oh
h2b
1n∑i
alice
hfill
##yg
nah2po4
neurodegen
arteries
fueled
##opathy
subsections
litfsi
exotherm
##elia
cd44
corroborates
ti6
486
tricyclic
resuspension
elig
receivers
sterilization
##ios
mtdna
wv
997
multiferroic
heus
salmonella
dofs
contraceptive
hood
jz
ch2n
berlin
worms
overheating
cellobi
disrupting
slater
γk
lubricants
028
c31
preclinical
relational
bary
blooms
ωj
##olide
hfs
gin
##zburg
neurodegenerative
liposomal
elas
gond
##yj
468
coinciding
ave
hydrol
bathymetry
streamline
##cv
surviving
##oxicity
##qz
##ptcl6
axons
##2r
##tisol
microfluidics
cardiomyocytes
lengthening
0m
barc
huck
synthetically
##δe
##−φ
endowed
skeletons
##core
##tling
egypt
metaph
sme
##oxymethyl
solvate
ipc
v˜
lna
payload
dionex
##hou
##2sn
gmr
payment
hank
questioned
##zerhof
freestanding
reass
mgs
halves
##halogen
premium
mto
taste
baked
pbr
asperity
equipments
∼14
defocus
organize
585
syst
##nut
decou
##pyrrolidone
asteroid
##tegration
excessively
meq
seman
cag
prototyp
30°c
enlarge
microemulsions
1−e−
congeners
kiln
##atigraphic
##o20
mpb
electrostatically
##in2
seeks
flap
provenance
##−8
methanogenic
fecal
2600
thermogravimetry
αl
olr
odn
##rolein
enantiop
lia
warranted
seals
cannab
##ecker
galvanostat
##oglyc
choi
maleimide
muse
beaches
##uer
595
aspartic
##ypical
compatibil
recyclable
e˙
##meters
php
##chin
ya
overwhelming
amazon
rifting
##wn
ethidium
saft
hoech
glance
−ln
##iki
lactones
bival
theoretic
339
rutherford
termini
ts1
##rocl
digitized
slippage
αp
nci
##ρl
games
unequivocally
macroscopically
axon
backing
cf4
coagulant
##oxanes
colorectal
scd
modality
amersham
zd
μeff
gord
purify
prod
pmo
##mn2
ontario
##meda
zoning
##ppi
barr
indexing
nexus
imbib
huvecs
iupac
microgel
wait
##unk
virulence
pparγ
∼17
p63
sah
physiologically
1z
hinges
##bys
388
ρm
moore
biomechanical
sphal
expander
nona
lq
349
mannitol
timest
##tech
infill
solvat
congruent
##amps
lux
questionnaires
kriging
tyrosinase
euph
interannual
925
s15
alps
overlain
buckled
butterfly
1021
adenocarcinoma
brazing
deacetylation
tetracycline
movable
spor
microextraction
##abi
trick
graphic
##urine
glycolysis
methanation
ellipticity
hafn
##te2
smb
##η1
cant
##enzyme
encompass
pmax
guanidine
inequivalent
359
exports
lognormal
enroll
hoechst
##dor
##2o9
exploits
silent
436
forthcoming
footing
allosteric
projecting
optoelectronics
heterocycle
terpyridine
justifies
od600
nanogr
##actin
comsol
nitroso
taxes
stal
sorgh
stilbene
##09
##azite
##car
##opr
coverslips
a22
mniii
glioma
##trac
preform
enforcement
unpredictable
biole
demineral
outlets
zl
isoc
bulge
neutralizing
##≫1
pico
alli
##ovan
##rology
g¯
vinylidene
workup
photodynamic
ωb
notches
k12
mesophilic
reed
r22
monodispersed
organelles
limonene
##ometries
overgrowth
escalab
cfp
##oxylin
##etti
##lung
proteomics
ptp
##anganate
lineshape
projectiles
##jm
squeeze
##±5
mlr
ise
s2a
ampk
transgene
ppg
macroscale
thirds
epile
1−ε
sarc
##oxime
τm
oxic
missions
superheat
910
hypochlor
mum
nitriles
multis
dpm
quadruple
cleave
cumbers
nash
cordi
genesis
clothing
binomial
##anesulfonic
accelerometer
polyvinylidene
∑s
indo
019
stressing
##bai
##exp−
pseudogap
cim
##electrode
birch
dictates
deoxygenated
ωl
grants
butt
resorption
##reson
##inflammatory
tpo
nice
dissociates
westward
mildly
plurip
formability
lamination
##i−
##osterol
shoots
vane
##arrier
siw
ozon
polyplexes
sorghum
##coo2
f˜
sulfonation
overlaid
recalculated
infeas
chan
transports
pursue
assurance
tomographic
##tification
ferroelectricity
radiometric
append
##cos2θ
prp
installing
##uin
##enkov
ch3o
ejecta
adlayer
cumbersome
atrazine
chronological
##octa
eigens
delineated
roberts
biochemistry
ordov
eem
##dialysis
smeared
payoff
eccentric
squeezed
circulated
kidneys
fia
##bumin
torch
ingestion
orb
1γ
ols
≈2
##atrix
θk
νc
remanufact
ν0
n1s
−45
ipso
##hydroxy
abortion
mo2
##aden
maritime
##hv
032
##reek
sang
exits
080
##titer
sca
magnetizations
mammary
nexafs
##entin
cu4
adhering
laden
c2h5oh
amalgam
jul
constrains
viscometer
algaas
vim
felsic
nitrous
polysulfide
ghost
fα
εij
provider
researcher
toxicological
##alloying
cermet
stiffeners
mits
φf
transferrin
bi2s3
turbo
dehydrox
positr
rtd
arabian
6th
ch2ph
leadership
archive
617
##wd
anthocyan
lpc
γ¯
kor
γt
##bling
efg
vaccination
∼90
##trates
akin
caprolactone
c−
ribosomal
polygons
cpm
##o2−
119sn
surm
remnants
##amaged
##ival
repetitions
##shell
martian
portal
v˙
hermitian
##onds
##ubin
565
profilometer
##qp
subrou
##gex
passengers
ordovician
inconel
##amethasone
ooh
dda
columbia
grease
ernzerhof
thermolysis
mgal2o4
grout
actinide
0k
smr
##roni
5n
dykes
shrinks
twee
##crs
tolerate
xrpd
parp
downregulated
ni1
cfb
flush
tanaka
##sio3
##ppm
cran
cambrian
394
recipient
##enoic
banding
lipof
polypeptides
ufg
comparably
sinking
##ethene
nao
##etted
naclo4
##σy
co0
lambert
dge
kij
2−1
##imetrically
recyclability
amphiphiles
opposition
cy3
775
nanogels
##rey
543
lup
imprint
radiogenic
dif
smol
puf
preclude
monotonously
1−f
indentations
##ρ1
climb
##oplatin
tetradec
##wavelength
##kins
mmm
invert
tetranuclear
npb
##intercal
herbicides
dipeptide
hph
mib
lipoprotein
hydrology
isothiocyanate
golgi
scour
locates
adventi
brilli
##ppy
microwaves
##acker
adequacy
hypertherm
amphibole
soap
##cm3
nest
tart
diphosph
agbr
stuck
##ipel
blunt
avrami
cuins2
hox
mismatches
nix
swift
cathod
misclassif
##j−1
≤1
eigenf
rectifying
##electrochemical
1964
##vg
catalyzing
ndr
confine
radiator
zetas
respects
329
tetrachloride
xh
r6g
tearing
recoverable
##factors
tokam
dll
hβ
387
cncs
tbt
##phy
dermal
##atalysis
opacity
bode
##ulators
terminations
actuated
rinse
##abicyclo
0d
aberrant
ipn
stent
inhabitants
##onn
##ethylamine
##6a
parall
027
delt
heusler
##umab
##produc
discrimin
titer
dts
herc
417
ordination
transiently
modulates
##abo
shower
sp1
##uns
pter
##ilicon
jat
##jet
aft
violations
proposing
infants
##fe1
recrystallisation
switchgrass
kinks
carbodiimide
deliberately
ampoule
alph
endocrine
complicates
huckel
mfm
heritage
λex
##n8
thresholding
xmcd
##∂s
deteriorates
flanking
smok
##oreactors
avenue
anteced
limbs
flavonoid
##vices
homem
##pots
arf
doesn
##opropane
upgraded
thinned
##peak
##uel
flowering
button
sphalerite
cls
perennial
##∂η
explosions
##∑t
##inθ
corundum
oxynitr
guinea
iri
647
formats
distinguishes
skull
##zinc
drink
cnx
gij
olfactory
limt
anesthetized
chicago
heteropoly
pretreatments
crosstalk
mechanochemical
##itrile
ω¯
rankine
scramb
polytetr
##yrin
##olitic
dichloroethane
smm
troposphere
aspartate
permanganate
iberian
##1t
chc
limiter
iga
lud
bi2se3
wrinkling
burd
##entions
islets
persisted
fss
surely
regimen
valine
zetasizer
##enth
##acids
s1b
somewhere
055
smearing
chalcogenides
ch2oh
subdomain
occasions
pregnant
waist
flory
##ieu
extrapolate
pumice
argentina
##istant
precludes
##22m
tonne
cfa
quotient
photometric
uy
p−
furnaces
companion
##asia
antico
chlorophenyl
pcf
modalities
selenide
tariffs
receding
blende
aam
ratiometric
doll
abolished
##ro4
csh
museum
nino
theme
eppendorf
hug
##terase
αj
inconven
unimolecular
lialh4
orthonormal
shark
enso
oscs
448
##oxygenase
yˆ
bee
##xd
εt
##anna
iodides
427
612
nanjing
lrs
radiometer
hams
##icide
890
rebar
##cct
386
##bedded
directionality
combustible
reprogr
benchmarking
##ometri
societal
stip
egcg
##sn5
hospitals
rake
ρp
seams
##ctt
##imin
so42−
priming
##n2o2
troughs
##∥2
diverging
grip
fishes
##thr
jordan
∂φ
metering
homemade
brackish
##tibility
au3
mercaptoethanol
∂h
##phi
##ophyl
microelectronics
heading
threats
wrinkles
xylanase
bous
##bury
udp
fertility
yin
rtp
τn
##ca2
dienes
##echanics
hydrofluoric
##4b
streak
##∫d
cardinal
##oglycan
sda
o2c
ballast
##vals
meteorites
undamaged
superm
bathochromic
bronsted
1620
2τ
##opol
tdc
dutch
pyridinic
##kal
##3o12
dewetting
asphaltenes
p→
c80
knife
goniometer
inertness
hek
positrons
perforation
commut
retentate
036
guai
dechlorination
##∂τ
18a
##orite
##anting
trabec
dai
7500
gus
emc
ampho
ppa
commercialized
1961
unsuper
##romethane
cmv
permissible
anxiety
f→
nch3
##oplast
ceased
chemie
implements
##bone
hexene
alad
##lj
superheated
sensation
##bk
##acr
electrification
##inj
γm
pgs
thomp
washes
tractions
neglects
peeled
caco
##vert
##h27
intersystem
##r4
adri
neoproterozoic
kurtosis
996
resistivities
dosed
τp
##graphs
unimodal
##atri
zrc
unsupervised
isomerisation
israel
lhs
alkoxides
stereogenic
wooden
moderator
inse
appended
afp
1−p
∂ϕ
bees
##andez
tibetan
phenylenediamine
docked
361
##oys
##ositions
compelling
##achrome
stiffener
424
438
msm
463
##ocyanine
towns
pyrophosphate
392
a→
chatter
apd
##ilient
proteome
##urrents
amphoter
levy
organised
nanoflakes
0005
abelian
##1g
wilcox
committed
##−η
dst
trid
rubbing
xiao
villages
acetates
##κ2
sia
puck
pathophy
##i4
paraf
tenth
subthreshold
hbt
hpo4
spinels
cdk
allen
aml
cocc
tij
dissimilarity
offic
curvilinear
##adical
ances
indoles
dressing
thompson
γr
##hydrite
aaa
ramped
pbc
unb
ignited
##inately
dicarb
polydimethylsiloxane
chloromethyl
chx
naal
disaccharide
harbor
##4o7
##grav
bistable
gα
hc2
100×
compilation
danish
stall
##λ0
dispens
acquires
##vk
3d3
immunosupp
neutrophil
perid
sn4
spherulites
εm
deciding
##oradi
fsi
1630
jacobi
##≤x
inductor
sesqu
fear
εc
serotonin
##ontact
caspt2
microelectrodes
##ce0
##mers
##ohydro
##tinib
1ns
adul
pand
expulsion
##yo
ti0
##mass
##itim
divides
altim
##ctg
##wana
biotechn
competes
comfortable
supercooling
065
1966
##ishaw
retarding
dosimetry
##alone
featureless
ψj
hect
zn1
528
ding
382
p˜
theorems
argu
peltier
linewidths
pco
##ellite
treats
hpp
talc
java
n×n
546
##adesh
arn
substructures
605
pbtio3
answered
##xin
disregarded
428
−23
cb2
αr
jf
##odior
hul
geomagnetic
meand
elute
processability
laves
histamine
paf
phd
kobs
##acetone
sixteen
rovibr
dpc
geor
fdr
recalcitr
affir
categorical
##⋯π
aesthetic
marang
silicas
2×1
##g−1
princeton
baking
426
dct
chest
##mnx
arrested
malon
∼150
technologically
viscoelasticity
bromination
thomson
rint
triply
irm
ligase
retri
##enger
supplements
grasses
##o10
3α
homos
weaknesses
##ye
θj
flc
##∂z2
##cosα
neodymium
nontoxic
aca
##5b
##iors
##ε1
##ophile
interleuk
665
kirk
amps
glycoside
transcriptome
articular
eruptive
##ti2o7
##σ¯
saturn
mainstream
confid
proximate
##oba
madison
abscissa
16b
##hell
cbn
##onov
dewatering
assured
−∂
positives
cfo
cyclopropyl
bifurcations
resorcinol
##radical
##rogenesis
gears
nude
oecd
reserved
monkhorst
sqrt
muffle
polarizabilities
##×106
##iron
gallic
governmental
##∕3
anchors
immunization
procured
scratches
dissipate
evening
##erants
503
paragraphs
−35
actinides
dxy
decont
##hemite
brace
petrographic
##illars
trimethoxy
nesting
axle
π1
##oda
##zk
##zone
ucl
##onymous
10×
resilient
shortcoming
σxx
##ifts
sncl2
polymorphisms
calixarene
protonic
competence
deflected
∀t
quinazol
chances
cocon
calend
d7
##iga
granitoids
21st
dichloride
incompatibility
7f
##shan
bcn
prosth
thiosulfate
5418
liquefied
bactericidal
morpholine
smf
subgrain
##kinson
##∼10
##amins
oat
##oded
formazan
##akh
peier
videos
gallery
lcd
renishaw
circuitry
gix
nan3
crucially
imparted
belonged
marangoni
##amol
mg2si
hunting
si0
decompression
##ocrysts
##itate
##lia
chu
deciduous
h11
sonochemical
conscious
scatterers
456
multiphoton
##incial
hrr
peculiarities
splice
inclusive
##oxif
prototypical
exhumation
flanges
##uto
illuminance
##weed
hemin
oam
hmscs
intend
epilayers
##quer
##acycle
3o2
coherently
##dj
unve
##ologen
mrsa
diyl
##quine
ifs
vasculature
foregoing
glycoproteins
##crit
dibor
034
##onductance
reliance
##enko
scenes
1040
alveolar
rebo
2h2
##132
legitim
e6
θr
##t−1
##apsing
[...]
